<unk>	0
<s>	0
</s>	0
▁=	-3.10519
.	-3.55057
,	-3.8167
)	-4.01082
▁	-4.30309
의	-4.32664
년	-4.40653
(	-4.66883
에	-4.89699
월	-4.98826
▁(	-5.00539
는	-5.03157
을	-5.04192
:	-5.08653
일	-5.10794
이	-5.15427
가	-5.29364
은	-5.30791
를	-5.34565
▁!	-5.34772
▁:	-5.49194
▁-	-5.52024
로	-5.58426
에서	-5.73942
과	-5.74333
▁1	-5.89227
와	-5.89611
으로	-5.97851
도	-6.02186
▁2	-6.02619
▁《	-6.04542
-	-6.07449
▁있다	-6.08756
▁이	-6.09451
》	-6.12403
인	-6.1293
▁3	-6.13922
▁수	-6.2031
▁*	-6.21111
▁제	-6.23656
한	-6.27899
▁역	-6.30849
이다	-6.31029
="	-6.35397
"	-6.35807
▁4	-6.40127
'	-6.43741
고	-6.47384
▁#	-6.48967
▁"	-6.54526
회	-6.56985
▁5	-6.57359
s	-6.6302
▁그	-6.63256
▁'	-6.70288
▁10	-6.70993
▁6	-6.7242
▁~	-6.72565
/	-6.73504
기	-6.74997
지	-6.75907
▁8	-6.79506
▁7	-6.79539
span	-6.82532
▁있는	-6.82589
하는	-6.83498
하고	-6.84758
2	-6.85517
▁9	-6.87641
▁12	-6.88439
대	-6.90388
>	-6.91916
시	-6.93252
▁style	-6.95461
·	-6.96094
다	-6.96593
사	-6.97676
▁분류	-6.97685
▁한	-6.98806
1	-6.98835
수	-6.9896
만	-7.00338
▁11	-7.01131
호	-7.0232
나	-7.02907
자	-7.04803
화	-7.05216
KST	-7.05336
▁|	-7.05711
▁!!	-7.09919
해	-7.1044
할	-7.10454
하여	-7.10587
제	-7.12983
하였다	-7.14319
서	-7.14405
했다	-7.17873
▁및	-7.18266
리	-7.18367
주	-7.19673
width	-7.20741
color	-7.21236
스	-7.22761
명	-7.24762
성	-7.26284
에게	-7.27087
▁중	-7.27578
▁대한	-7.29986
부	-7.30061
en	-7.32355
▁외부	-7.32378
▁링크	-7.32437
▁후	-7.327
토론	-7.33044
상	-7.33535
라	-7.35921
면	-7.36608
세	-7.37184
▁<	-7.37687
▁한다	-7.39102
</	-7.39652
▁등	-7.40057
▁of	-7.40558
▁다른	-7.40619
조	-7.43187
동	-7.45203
적	-7.4591
3	-7.46594
▁전	-7.47467
▁이후	-7.48664
장	-7.48857
),	-7.49469
된	-7.49805
진	-7.49868
\	-7.49944
▁같은	-7.50671
차	-7.50754
어	-7.50884
▁두	-7.51461
▁/	-7.51865
원	-7.52605
▁15	-7.52936
▁때	-7.53843
▁그는	-7.54013
한다	-7.54256
▁;	-7.54514
전	-7.55614
▁되었다	-7.55744
▁16	-7.56027
;	-7.56116
미	-7.57904
▁더	-7.58527
아	-7.59868
구	-7.599
▁각주	-7.60882
▁\	-7.61089
정	-7.63102
토	-7.63469
하게	-7.63592
에서는	-7.64121
비	-7.64731
▁함께	-7.64882
개	-7.6608
▁20	-7.6632
선	-7.66394
야	-7.66556
▁--	-7.66653
에는	-7.67158
위	-7.67413
▁또한	-7.67413
게	-7.68071
▁위해	-7.68157
되었다	-7.68338
우	-7.68619
▁the	-7.68724
년에	-7.6878
_	-7.69262
▁2010	-7.69348
군	-7.69544
m	-7.70579
오	-7.71175
신	-7.72193
▁17	-7.7346
산	-7.74707
라고	-7.75183
▁A	-7.75271
!!	-7.75319
A	-7.75699
▁주	-7.75962
▁14	-7.76462
소	-7.76487
라는	-7.76894
▁오	-7.77147
▁2011	-7.77668
▁것을	-7.77774
▁같이	-7.7789
▁때문에	-7.78267
C	-7.78646
▁2008	-7.78669
4	-7.79072
현	-7.79557
▁2009	-7.79589
▁2014	-7.79603
▁2012	-7.79999
▁일본	-7.80016
▁2013	-7.80417
이며	-7.80833
B	-7.8125
마	-7.83558
▁13	-7.83585
?	-7.83769
▁2015	-7.83852
▁18	-7.8409
▁시	-7.8412
▁신	-7.85386
되어	-7.85394
이나	-7.85785
하기	-7.86207
n	-7.86248
▁미국	-7.86407
들이	-7.87118
보	-7.87245
노	-7.87383
까지	-7.8752
▁영화	-7.87805
▁그러나	-7.87819
▁따라	-7.88427
▁대	-7.89137
x	-7.89614
▁그리고	-7.89732
트	-7.90708
▁‘	-7.91586
코	-7.92275
’	-7.9228
타	-7.92845
▁또는	-7.93022
형	-7.93112
식	-7.94242
▁된다	-7.94696
S	-7.94755
▁가장	-7.9485
치	-7.95075
▁것으로	-7.95802
무	-7.96045
▁그의	-7.96113
▁하는	-7.9651
▁것이	-7.96897
▁한국	-7.9706
영	-7.97207
경	-7.97409
계	-7.98001
▁→	-7.98061
▁경우	-7.98286
▁2016	-7.98627
▁0	-7.99196
5	-7.99351
▁고	-7.99386
하지	-7.99481
▁S	-7.9963
용	-7.99751
적인	-8.00036
▁선수	-8.0005
▁B	-8.00366
하	-8.00717
들은	-8.0098
▁2007	-8.01037
▁비	-8.01179
▁and	-8.01383
▁다시	-8.01791
▁첫	-8.01898
",	-8.02063
역	-8.0207
▁30	-8.02376
▁정	-8.02701
드	-8.02775
▁했다	-8.03007
▁〈	-8.03135
▁K	-8.03525
▁성	-8.03757
하며	-8.03956
▁사	-8.04091
D	-8.04243
권	-8.04285
▁시즌	-8.04297
▁안	-8.04382
a	-8.04488
강	-8.04558
▁아	-8.04599
▁19	-8.04689
!	-8.04704
▁의해	-8.04818
▁구	-8.0483
▁있었다	-8.04936
▁있으며	-8.05103
관	-8.05155
▁2017	-8.05228
▁당시	-8.05348
=	-8.05522
실	-8.05664
|	-8.0655
]	-8.06738
▁대한민국	-8.06881
니	-8.07071
▁C	-8.0738
〉	-8.07427
즈	-8.07552
번	-8.07813
()	-8.07852
▁해	-8.08362
▁할	-8.08778
당	-8.08789
유	-8.09292
▁통해	-8.09607
▁장	-8.0981
▁21	-8.09961
중	-8.10748
▁많은	-8.10886
E	-8.11682
들을	-8.11703
▁현재	-8.1181
▁2018	-8.11883
▁것	-8.12117
F	-8.12193
들	-8.12597
목	-8.12745
단	-8.1287
천	-8.13031
{	-8.13514
▁모든	-8.13631
국	-8.13657
e	-8.13794
i	-8.13973
6	-8.14327
▁것이다	-8.14474
▁것은	-8.1455
파	-8.14624
금	-8.14825
▁2006	-8.15005
분	-8.1517
▁[	-8.1531
▁대한민국의	-8.15777
이라는	-8.1592
▁23	-8.1608
석	-8.16121
7	-8.16599
▁세	-8.16912
▁22	-8.17025
▁다	-8.17136
background	-8.17189
▁보기	-8.1748
문	-8.17602
재	-8.17789
8	-8.18349
▁모두	-8.18408
▁유	-8.1912
카	-8.19937
모	-8.20005
▁선	-8.20033
:#	-8.20038
▁세계	-8.20337
▁내	-8.20814
▁데	-8.20927
▁축구	-8.2097
연	-8.20972
▁소	-8.21311
민	-8.21966
}	-8.21967
style	-8.22
M	-8.22175
▁in	-8.22358
▁가	-8.22426
9	-8.22489
▁위한	-8.22952
키	-8.22991
▁width	-8.23095
▁25	-8.23394
공	-8.23697
이라고	-8.23732
요	-8.24584
▁지	-8.25029
바	-8.25466
▁도	-8.25553
d	-8.25742
">	-8.25929
▁강	-8.25956
▁큰	-8.26102
포	-8.26209
~	-8.2684
교	-8.26896
▁KBS	-8.27118
▁대해	-8.27695
며	-8.28176
▁조	-8.28511
▁...	-8.28607
▁양	-8.28925
▁M	-8.29038
▁자신의	-8.29072
네	-8.29124
▁24	-8.29627
▁2019	-8.29956
일에	-8.30199
▁총	-8.3082
▁여러	-8.30839
▁&	-8.31374
▁2005	-8.31395
티	-8.31797
안	-8.32396
▁약	-8.32591
란	-8.32782
K	-8.33167
▁미	-8.33255
T	-8.3331
▁마	-8.33321
▁방송	-8.33676
남	-8.33875
레	-8.34176
▁다음과	-8.34188
승	-8.34333
개의	-8.34334
크	-8.34691
t	-8.34785
px	-8.348
▁D	-8.34953
하면서	-8.35308
되는	-8.35424
데	-8.35529
종	-8.3575
▁리그	-8.35809
y	-8.35902
▁하였다	-8.36209
법	-8.36229
루	-8.37006
집	-8.37018
▁원	-8.3703
▁하지만	-8.37536
▁T	-8.37776
▁서	-8.37891
▁28	-8.37899
▁R	-8.37927
▁부	-8.38046
▁The	-8.38433
▁서울	-8.38554
▁“	-8.38797
in	-8.39034
▁등의	-8.39057
되고	-8.39354
10	-8.3942
▁----	-8.39432
디	-8.39634
▁2004	-8.39786
▁하	-8.39815
▁26	-8.39946
여	-8.39995
▁뒤	-8.40483
▁역사	-8.40645
▁미국의	-8.40674
희	-8.4081
▁27	-8.41085
양	-8.41175
▁2020	-8.41649
▁말	-8.41652
▁틀	-8.41912
▁나	-8.42272
▁상	-8.42278
▁G	-8.42386
▁F	-8.42386
▁알	-8.42402
▁백	-8.42642
프	-8.42663
후	-8.42735
들의	-8.42951
초	-8.43016
▁무	-8.43125
청	-8.43159
방	-8.43196
▁P	-8.43413
▁바	-8.43473
▁드라마	-8.4369
▁하고	-8.44692
학	-8.44957
”	-8.45204
하였고	-8.45596
간	-8.45724
▁p	-8.45928
0	-8.46201
▁배우	-8.46281
▁다음	-8.46591
▁MBC	-8.46738
c	-8.46748
▁문서	-8.46864
f	-8.47069
▁반	-8.47178
b	-8.47488
▁김	-8.47523
했고	-8.47943
▁E	-8.48308
▁진	-8.48457
▁노	-8.48625
align	-8.48797
▁없는	-8.48897
KBS	-8.48987
▁산	-8.4907
▁이러한	-8.49152
▁각	-8.49177
▁29	-8.49246
▁중국	-8.49399
▁리	-8.49666
p	-8.50006
된다	-8.5012
반	-8.50336
부터	-8.50681
왕	-8.50876
▁지역	-8.5091
▁잘	-8.50952
▁2000	-8.50968
이었다	-8.50975
▁H	-8.50992
ing	-8.51269
"|	-8.51487
였다	-8.51811
▁colspan	-8.51994
▁–	-8.52229
▁우	-8.52278
보다	-8.52391
▁TV	-8.52545
▁공식	-8.52608
G	-8.53135
;"|	-8.53161
▁등이	-8.53183
▁보	-8.53313
▁또	-8.53623
▁2003	-8.5367
두	-8.53682
▁외	-8.53764
▁수상	-8.54026
▁등을	-8.54187
P	-8.54256
급	-8.54306
배	-8.54603
▁기	-8.54797
▁모	-8.55303
▁해당	-8.5539
▁2002	-8.56189
적으로	-8.56449
km	-8.56565
H	-8.56585
▁현	-8.56653
▁참고	-8.57012
▁이는	-8.57512
ed	-8.57882
▁자	-8.58564
▁경기	-8.58588
▁게임	-8.5878
▁여자	-8.58904
▁·	-8.58953
▁조선	-8.5915
N	-8.59165
R	-8.59379
히	-8.59482
팀	-8.59552
르	-8.59965
br	-8.60165
린	-8.60273
▁scope	-8.60325
▁a	-8.60327
▁이를	-8.60376
점	-8.60513
준	-8.60586
피	-8.6069
그	-8.60803
▁호	-8.60814
체	-8.60874
▁||	-8.61031
이자	-8.6125
내	-8.61407
▁주요	-8.6149
er	-8.61719
창	-8.61892
▁있습니다	-8.61953
▁되어	-8.6208
▁J	-8.62377
▁일부	-8.62387
▁학교	-8.6262
▁군	-8.62962
▁된	-8.63206
▁남	-8.63215
▁동	-8.63275
12	-8.63444
▁동안	-8.63582
로부터	-8.63659
;"	-8.63715
거	-8.63992
▁사용자	-8.64291
츠	-8.64582
▁요청	-8.65178
▁결과	-8.65231
태	-8.65269
▁국제	-8.65481
▁L	-8.65534
▁코	-8.65704
▁기타	-8.65707
▁국가	-8.65821
▁우승	-8.65989
k	-8.66015
▁박	-8.66163
&	-8.66186
년부터	-8.66273
던	-8.66294
▁기록	-8.66307
11	-8.66446
에도	-8.667
▁아니라	-8.66743
더	-8.67141
▁볼	-8.67151
판	-8.67365
▁즉	-8.67926
▁새로운	-8.68235
순	-8.68392
▁관련	-8.68439
년에는	-8.68487
L	-8.68816
▁경	-8.68984
▁같다	-8.69197
▁이상	-8.6923
▁인해	-8.69301
▁위	-8.69579
러	-8.69619
▁초	-8.69695
▁2001	-8.69753
」	-8.69862
로서	-8.69882
봉	-8.69945
▁재	-8.70044
철	-8.70066
세기	-8.70248
▁차단	-8.703
▁어	-8.70573
▁이에	-8.70612
▁특히	-8.70646
▁없다	-8.7088
▁번째	-8.71019
▁위키백과	-8.71156
▁음악	-8.71158
▁31	-8.71292
입니다	-8.71664
▁이름	-8.71727
▁피	-8.71782
▁N	-8.72027
▁명	-8.72035
번째	-8.72395
▁I	-8.72563
▁당	-8.72686
운	-8.7269
rowspan	-8.72707
em	-8.72808
병	-8.72827
▁라	-8.72872
▁팀	-8.72912
터	-8.73023
▁않고	-8.73098
백	-8.7331
▁rowspan	-8.73412
▁일본의	-8.73513
▁영국	-8.73527
류	-8.73702
생	-8.74141
▁SBS	-8.74187
▁카	-8.74232
될	-8.74248
▁V	-8.74375
》(	-8.74456
환	-8.74552
▁파	-8.74842
광	-8.74923
▁올림픽	-8.75069
▁to	-8.75226
text	-8.75487
▁삼	-8.75623
▁프랑스	-8.75796
▁변경	-8.75914
V	-8.75919
건	-8.76229
길	-8.76448
▁있고	-8.76462
▁가지고	-8.76807
▁관한	-8.77327
발	-8.77857
량	-8.78062
항	-8.78122
▁+	-8.78287
질	-8.78307
음	-8.78545
▁연구	-8.78747
small	-8.78856
곡	-8.78905
▁윤	-8.79215
▁있던	-8.79244
▁감독	-8.79266
▁매우	-8.79424
각	-8.79522
심	-8.79657
▁송	-8.79674
▁본	-8.79704
▁단	-8.80149
▁작품	-8.80457
col	-8.80531
h	-8.80666
와의	-8.80831
▁정보	-8.81044
[	-8.81073
덕	-8.81116
론	-8.81179
▁「	-8.81225
▁W	-8.81278
▁교육	-8.81364
▁출연	-8.81367
<	-8.81492
▁영	-8.81606
▁저	-8.81769
▁독일	-8.81919
▁활동	-8.81945
19	-8.82342
하면	-8.82411
...	-8.8248
▁왕	-8.82635
이고	-8.82643
▁사용	-8.82962
01	-8.8309
▁포	-8.8316
하다	-8.83172
://	-8.83254
%	-8.836
물	-8.83605
▁U	-8.83641
▁배	-8.83815
근	-8.83997
등	-8.84059
▁자료	-8.84189
W	-8.84229
▁많이	-8.8434
▁대학	-8.84354
▁결국	-8.84792
씨	-8.84808
▁국제공항	-8.84911
령	-8.85283
▁X	-8.85362
▁1999	-8.85436
▁남자	-8.85589
="2"|	-8.85596
호선	-8.85606
▁않은	-8.85794
함	-8.85849
▁간	-8.85929
저	-8.85944
테	-8.86078
▁인	-8.86275
면서	-8.86447
▁::	-8.86576
경기	-8.8669
림	-8.86898
임	-8.87027
▁100	-8.87119
X	-8.87209
▁계속	-8.87275
▁있어	-8.87358
▁음반	-8.87456
되었고	-8.87985
예	-8.88027
복	-8.88086
했으며	-8.88201
al	-8.88237
속	-8.88326
;">	-8.88368
암	-8.88433
▁아들	-8.88531
▁1998	-8.88672
TV	-8.8878
20	-8.88825
▁앨범	-8.88846
l	-8.89009
▁불	-8.89011
이라	-8.89343
▁문	-8.89348
하였으며	-8.89396
▁목록	-8.89419
▁도시	-8.89467
박	-8.89482
▁타	-8.89518
colspan	-8.8968
감	-8.8971
브	-8.89956
▁위치한	-8.90053
▁않았다	-8.90202
▁대회	-8.90404
했던	-8.90537
▁않는	-8.90602
▁주로	-8.90746
▁수도	-8.90795
해야	-8.90931
▁{	-8.91012
▁날	-8.91021
년대	-8.91167
▁사건	-8.91308
▁유럽	-8.91503
리그	-8.9177
메	-8.91818
▁연	-8.9193
02	-8.92202
▁전쟁	-8.92211
15	-8.92406
▁여	-8.92411
편	-8.92937
com	-8.93014
설	-8.93051
▁받았다	-8.93261
font	-8.9335
J	-8.93367
03	-8.93544
▁여성	-8.93867
년까지	-8.9388
합니다	-8.94015
–	-8.94117
▁1996	-8.94149
랑	-8.94307
주의	-8.94582
▁편집	-8.94647
+	-8.94718
숙	-8.94949
r	-8.94969
되지	-8.9506
▁인물	-8.95164
▁관리	-8.95393
▁최	-8.95487
직	-8.95998
처럼	-8.95998
▁방	-8.96085
▁프로	-8.96112
▁1997	-8.96408
별	-8.96735
▁홈페이지	-8.96738
▁황	-8.96883
본	-8.96944
▁어떤	-8.96996
지만	-8.97161
달	-8.97222
o	-8.97423
온	-8.97612
row	-8.97761
▁되는	-8.98038
16	-8.98344
▁심	-8.98419
▁공	-8.98576
||	-8.98587
g	-8.98731
▁선거	-8.98849
해서	-8.98884
패	-8.9914
엔	-8.99142
MBC	-8.99202
▁사회	-8.99291
▁들어	-8.99298
13	-8.99311
48	-8.9938
▁번	-8.99444
▁대통령	-8.99696
▁네	-8.99711
The	-8.99724
▁새	-8.99734
불	-8.99825
▁경제	-9
베	-9.00177
18	-9.00238
▁존	-9.00291
▁따라서	-9.00383
▁개	-9.00472
▁이어	-9.00521
표	-9.00586
▁권	-9.0072
행	-9.00865
▁임	-9.00994
송	-9.01058
난	-9.01092
▁키	-9.01108
v	-9.01295
빈	-9.0181
▁토론	-9.01833
I	-9.02059
▁로마	-9.02195
▁경력	-9.02289
▁1995	-9.02305
김	-9.02358
통	-9.02359
金	-9.02717
버	-9.02826
명의	-9.02844
▁만	-9.02873
▁한편	-9.02882
▁거의	-9.02996
▁FC	-9.03003
층	-9.03154
쿠	-9.033
케	-9.03307
O	-9.03389
월에	-9.03465
▁아닌	-9.03632
▁비고	-9.0373
▁금	-9.03744
▁난	-9.03884
▁행정	-9.03922
▁제작	-9.03937
에서도	-9.0396
▁철도	-9.04
하기도	-9.04128
평	-9.04489
투	-9.04773
▁대전	-9.04864
《	-9.04893
▁홍	-9.05005
▁될	-9.05093
="2"	-9.05154
▁졸업	-9.05346
윤	-9.05745
right	-9.05991
규	-9.05999
▁차	-9.06046
▁역시	-9.06133
▁경기도	-9.06488
▁이미	-9.06689
▁텔레비전	-9.06762
▁않는다	-9.0695
▁매	-9.07118
▁1990	-9.07169
▁스	-9.07312
▁for	-9.07778
21	-9.07818
><	-9.07922
▁싱글	-9.08108
▁러시아	-9.08324
▁예	-9.08348
▁운영	-9.0866
말	-9.08695
방송	-9.08737
to	-9.09074
열	-9.09192
▁기술	-9.09443
▁달	-9.09498
▁이야기	-9.09572
▁직접	-9.09918
▁노래	-9.0995
▁처음	-9.10027
▁시리즈	-9.10091
초등학교	-9.10172
▁분	-9.10215
▁종	-9.10357
▁관계	-9.10472
24	-9.10479
14	-9.10533
으로부터	-9.10553
읍	-9.10624
탄	-9.10698
고등학교	-9.1084
▁다양한	-9.10844
▁삭제	-9.10871
17	-9.10916
▁조직	-9.10918
▁공항	-9.11005
너	-9.11451
일부터	-9.1147
▁로	-9.11479
▁청	-9.11643
▁보고	-9.11684
▁가운데	-9.11715
▁지원	-9.1174
▁문화	-9.11762
▁높은	-9.11865
▁기준	-9.1201
30	-9.12071
▁애니메이션	-9.12083
▁이전	-9.12146
center	-9.12191
▁최고	-9.12251
▁후보	-9.1227
▁있을	-9.12301
▁있는데	-9.12339
▁노선	-9.12424
▁이탈리아	-9.12445
▁스포츠	-9.12536
▁발매	-9.12541
▁아버지	-9.12692
총	-9.12698
▁열린	-9.12732
の	-9.12748
▁이런	-9.12768
매	-9.12813
▁가지	-9.12964
▁정치	-9.13123
z	-9.13233
훈	-9.13323
▁이름을	-9.13426
▁1994	-9.13517
▁지방	-9.1361
▁건	-9.13691
▁개발	-9.13716
▁일반	-9.14077
▁야구	-9.14094
▁설립	-9.1434
▁온	-9.145
대학교	-9.1462
08	-9.14667
범	-9.14973
▁전투	-9.15105
▁순위	-9.15196
04	-9.15234
05	-9.15256
▁시간	-9.15274
약	-9.15286
李	-9.1532
▁하나	-9.15363
▁없이	-9.15452
되었으며	-9.15488
25	-9.15714
▁확인	-9.15739
려	-9.15772
▁영향을	-9.15847
大	-9.1604
▁따르면	-9.16056
으로서	-9.16187
▁작은	-9.16195
▁있다고	-9.16294
▁도쿄	-9.16314
▁]	-9.16318
▁동시에	-9.16341
▁이용	-9.1647
07	-9.16493
▁출신	-9.16534
▁레	-9.16678
▁연속	-9.16721
▁서로	-9.16827
▁이동	-9.17017
▁화	-9.17209
th	-9.17341
▁프로그램	-9.17362
▁후에	-9.17504
▁몇	-9.17521
▁천	-9.17538
》,	-9.17573
처	-9.1774
▁손	-9.17844
▁시대	-9.1797
절	-9.18056
▁경기에서	-9.1817
▁시절	-9.1825
▁의한	-9.18292
거나	-9.18295
명이	-9.18371
옥	-9.18452
▁고려	-9.18547
▁마지막	-9.18686
중학교	-9.18725
골	-9.18824
위원회	-9.18896
▁m	-9.18962
▁사람	-9.19464
증	-9.19637
였던	-9.19697
_{	-9.19807
과의	-9.1993
▁좋은	-9.20001
▁허	-9.20091
억	-9.2019
06	-9.20306
▁치	-9.20379
▁편	-9.20487
▁O	-9.21471
▁크게	-9.21557
▁소속	-9.21595
살	-9.21597
들과	-9.21698
▁f	-9.21735
▁아이	-9.21839
▁채	-9.21893
대학	-9.21902
▁하여	-9.21967
애	-9.22155
▁50	-9.22166
09	-9.2239
차전	-9.22394
시간	-9.22402
▁부산	-9.22411
▁발	-9.22516
es	-9.2254
."	-9.22551
',	-9.22606
▁속	-9.22688
▁라디오	-9.22808
▁1992	-9.2292
U	-9.22928
▁역대	-9.23016
▁현대	-9.23085
28	-9.23142
27	-9.23142
.--	-9.23229
▁가수	-9.23405
▁1993	-9.2341
・	-9.23433
하던	-9.23449
▁북	-9.23506
▁시작	-9.23609
▁가진	-9.23612
▁문제	-9.23658
▁적	-9.23725
위를	-9.23865
▁받아	-9.23935
▁중앙	-9.24166
▁정부	-9.24222
』	-9.24241
족	-9.24309
▁클럽	-9.24361
SBS	-9.24369
▁추가	-9.24516
찬	-9.24561
했지만	-9.24581
▁각각	-9.24629
▁독립	-9.24669
▁그가	-9.24703
작	-9.24753
삼	-9.24803
학교	-9.24844
▁혹은	-9.25109
▁기여	-9.25256
▁위하여	-9.25257
=2|	-9.25374
operatorname	-9.25393
Y	-9.25462
망	-9.25557
색	-9.25627
학급	-9.25678
▁생애	-9.25683
▁물	-9.25687
▁드	-9.25689
size	-9.25733
"]	-9.25782
▁성우	-9.25826
쪽	-9.25834
▁설치	-9.25948
FF	-9.25952
▁딸	-9.25967
락	-9.2623
언	-9.26235
▁중요한	-9.26443
기를	-9.26728
하자	-9.26753
left	-9.26762
링	-9.26816
▁대하여	-9.26915
록	-9.27017
us	-9.27064
스타	-9.27198
▁석	-9.27312
▁정당	-9.27469
는데	-9.27525
▁de	-9.27693
▁열	-9.27763
▁대신	-9.27783
▁기자	-9.28015
▁토	-9.2814
▁요	-9.28171
山	-9.28178
26	-9.28233
맨	-9.28316
추	-9.28358
▁생산	-9.28384
슨	-9.28598
▁자유	-9.28644
▁디	-9.28664
▁야	-9.28849
▁글	-9.28895
▁1991	-9.28961
▁["	-9.28997
▁공격	-9.29055
하였으나	-9.29096
▁바로	-9.29158
▁말한다	-9.29181
▁진행	-9.29205
▁인구	-9.29263
▁『	-9.29568
담	-9.29702
슈	-9.29863
래	-9.29871
▁민	-9.29923
mm	-9.30078
▁대표	-9.30216
쇼	-9.3045
커	-9.30457
홍	-9.30532
▁전기	-9.30621
29	-9.30917
▁지정	-9.3092
한국	-9.30932
36	-9.30993
j	-9.31082
▁하지	-9.31186
▁구간	-9.31213
▁주연	-9.31355
외	-9.31695
▁사진	-9.31756
▁구성	-9.31942
북	-9.32008
▁달리	-9.32026
▁뉴스	-9.32117
▁되고	-9.32129
향	-9.32156
성을	-9.32395
▁사이에	-9.32413
▁개인	-9.3244
야마	-9.3249
▁줄	-9.32522
le	-9.326
▁애	-9.32604
변	-9.32641
▁섬	-9.32746
▁생활	-9.32853
▁월드컵	-9.32969
▁용	-9.3314
▁FIFA	-9.33277
▁편성	-9.33314
23	-9.33338
력	-9.33394
하거나	-9.33398
▁반대	-9.33436
▁01	-9.33458
▁오브	-9.33555
u	-9.3363
▁교	-9.33715
필	-9.33737
▁봉	-9.33771
으며	-9.33807
▁1980	-9.33903
극	-9.33907
▁개요	-9.34069
기도	-9.34183
▁작곡	-9.34218
▁거	-9.34241
frac	-9.34382
▁점	-9.34392
▁대학교	-9.34397
▁on	-9.3457
▁자신이	-9.34572
손	-9.3476
▁광	-9.3493
31	-9.35021
▁처음으로	-9.35334
▁사상	-9.3575
▁국민	-9.35943
▁기간	-9.35953
▁전국	-9.35979
▁보통	-9.3601
22	-9.36204
▁d	-9.36332
지는	-9.36652
▁판	-9.36666
▁아시아	-9.36749
▁자기	-9.37381
▁Z	-9.37467
됐다	-9.3747
▁초기	-9.37592
▁합니다	-9.37625
▁길	-9.37626
▁역할을	-9.37808
▁1989	-9.37939
▁1988	-9.37984
▁공동	-9.38228
▁참가	-9.38429
▁결정	-9.388
▁겸	-9.38831
했으나	-9.38841
▁정도	-9.38916
▁1987	-9.39116
되면서	-9.39217
on	-9.3941
채	-9.396
▁만든	-9.39682
▁어느	-9.39713
www	-9.39722
▁군사	-9.39743
▁40	-9.4
이었던	-9.4
충	-9.40082
▁변	-9.40192
었다	-9.40207
▁영어	-9.40334
38	-9.40452
업	-9.40539
립	-9.40672
w	-9.40768
▁건설	-9.40893
></	-9.40908
▁받은	-9.41022
▁한국어	-9.41138
▁메	-9.41211
39	-9.41335
▁대구	-9.41373
▁시작했다	-9.41384
▁공연	-9.41387
막	-9.41452
▁있지만	-9.41776
헌	-9.41796
46	-9.41832
▁알려져	-9.41863
세의	-9.42101
▁관리자	-9.42139
하라	-9.42401
▁최초의	-9.42564
▁교통	-9.42606
▁그룹	-9.42616
▁하며	-9.42628
교육	-9.42691
▁교수	-9.42757
▁베	-9.42959
일까지	-9.42966
▁산업	-9.42992
대로	-9.43067
▁이때	-9.43093
#	-9.4334
▁x	-9.43582
▁사람이	-9.43611
▁거쳐	-9.43633
▁발표	-9.43677
하지만	-9.4388
퍼	-9.43972
풍	-9.4404
촌	-9.44201
▁루	-9.44284
▁연혁	-9.44306
▁게	-9.44378
▁선정	-9.44482
▁조사	-9.44639
▁문헌	-9.44776
▁사업	-9.44876
▁문서를	-9.44881
출	-9.45036
▁쇼	-9.45053
▁운행	-9.45062
▁선발	-9.45101
▁유지	-9.45398
or	-9.45643
▁도로	-9.45676
▁취임	-9.45706
▁있어서	-9.45738
녀	-9.45742
▁시스템	-9.4577
새	-9.45796
악	-9.45802
▁받고	-9.46135
▁패	-9.46286
▁포함	-9.46411
▁파일	-9.46535
룡	-9.46746
▁전체	-9.46813
▁이유로	-9.46825
▁by	-9.46904
▁곡	-9.46918
▁사망	-9.4693
▁통합	-9.4696
샤	-9.46972
▁스타	-9.4704
▁연도	-9.47088
▁구조	-9.47105
▁서울특별시	-9.47114
▁창	-9.4726
▁육군	-9.47322
▁병	-9.47369
페	-9.475
44	-9.47623
▁↔	-9.47635
들에게	-9.47728
▁참	-9.4775
▁투	-9.47829
▁--<	-9.47846
시켰다	-9.47863
자가	-9.47902
▁국도	-9.48003
▁기준으로	-9.48109
▁집	-9.48193
▁국회의원	-9.48257
▁''''''	-9.48329
▁못	-9.484
▁기원전	-9.48432
▁문제가	-9.48491
합	-9.48612
▁발생	-9.48634
43	-9.48682
▁있다는	-9.4873
99	-9.48784
▁사랑	-9.48785
▁사이	-9.48815
=2	-9.49198
렌	-9.49524
▁이것은	-9.4967
▁보호	-9.49754
▁전자	-9.49801
▁인도	-9.50122
▁태	-9.50232
▁항공	-9.50344
▁명의	-9.50361
하는데	-9.50424
40	-9.50608
▁번역	-9.50661
▁감	-9.50679
▁그를	-9.50848
▁컴퓨터	-9.5088
http	-9.51042
▁구역	-9.51055
-1	-9.51056
。	-9.51072
▁개의	-9.51134
▁중심으로	-9.51326
▁등장	-9.51556
id	-9.51563
▁형	-9.51611
▁기업	-9.51631
▁준	-9.51783
▁참여	-9.51861
궁	-9.51926
문화	-9.52023
▁계	-9.52073
이란	-9.52091
쓰	-9.52147
▁평가	-9.522
▁과학	-9.52231
ly	-9.52429
▁서비스	-9.52435
▁최대	-9.52446
결	-9.52497
▁부문	-9.52514
▁자연	-9.52527
ic	-9.52543
져	-9.52602
mathbb	-9.527
▁기독교	-9.52792
▁주변	-9.52804
▁연결	-9.52829
41	-9.52831
▁이상의	-9.52944
▁대상	-9.52985
술	-9.53067
▁기사	-9.53163
Z	-9.53164
▁존재	-9.53357
▁1970	-9.53407
▁생각	-9.53409
▁맥	-9.53434
▁살	-9.53587
▁계획	-9.53709
▁모델	-9.53715
▁처리	-9.5372
귀	-9.5376
王	-9.53791
▁순	-9.5383
▁친	-9.53846
▁정의	-9.53861
▁1986	-9.53863
칸	-9.53968
▁국	-9.53978
▁color	-9.54011
▁발전	-9.54146
▁데뷔	-9.54375
▁수정	-9.54562
▁등에	-9.54594
▁실	-9.54744
▁공개	-9.54779
▁진출	-9.54875
일본	-9.55002
격	-9.55004
▁s	-9.55024
▁만들어	-9.55122
32	-9.55152
▁것에	-9.55167
53	-9.55283
독	-9.55317
축	-9.5532
▁최종	-9.55409
이지만	-9.55418
▁그리스	-9.55515
▁align	-9.55538
▁디지털	-9.55575
▁어머니	-9.55575
완	-9.55605
▁부분	-9.55678
35	-9.55689
학년	-9.55703
▁일반적으로	-9.55718
▁주장	-9.55723
▁동문	-9.55733
▁운동	-9.55874
▁법	-9.55908
▁과거	-9.56007
개월	-9.56057
▁때문이다	-9.56313
▁사실	-9.56315
학과	-9.56392
라운드	-9.56511
re	-9.56547
51	-9.56597
▁종교	-9.56645
탈	-9.56706
▁기능	-9.56897
▁공화국	-9.56928
▁잉글랜드	-9.57022
▁전에	-9.57325
45	-9.57337
▁인터넷	-9.57388
이기도	-9.57425
▁제가	-9.57452
▁작사	-9.57591
▁팔	-9.57627
▁km	-9.57749
▁태어났다	-9.57771
▁활동을	-9.57868
▁작성	-9.57875
턴	-9.57931
33	-9.58053
▁목	-9.58088
▁설명	-9.58134
품	-9.58219
▁Re	-9.58289
▁승	-9.58339
▁별	-9.58479
▁국가대표팀	-9.58482
▁UEFA	-9.58484
센터	-9.58659
ia	-9.58828
울	-9.5885
리아	-9.59078
황	-9.59229
에서의	-9.59356
▁원래	-9.59365
명을	-9.59384
ation	-9.59494
익	-9.59519
▁사용하는	-9.59535
▁책	-9.59538
▁지역의	-9.5955
▁초대	-9.59592
▁n	-9.5969
▁슈	-9.59692
▁두고	-9.59778
▁그대로	-9.59783
▁국내	-9.59791
▁밤	-9.59815
입	-9.59867
▁교차로	-9.59868
文	-9.59883
▁1985	-9.59964
▁우주	-9.60127
47	-9.60195
▁있었던	-9.60245
▁from	-9.60246
90	-9.60447
갈	-9.60639
▁승강장	-9.60664
▁1984	-9.6068
▁예를	-9.60701
▁위치	-9.60725
▁불구하고	-9.60843
섬	-9.60893
▁없었다	-9.60944
▁인천	-9.61014
▁:*	-9.61037
▁입	-9.61045
협회	-9.61112
▁b	-9.61138
▁경상북도	-9.61168
▁친구	-9.61182
70	-9.61296
▁기본	-9.61367
▁광주	-9.61439
효	-9.61473
인데	-9.61497
)·	-9.61567
스트	-9.61681
▁행	-9.61746
▁평균	-9.6176
▁빈	-9.61797
▁우리	-9.61805
▁대해서는	-9.61834
▁프로젝트	-9.61956
▁있게	-9.62005
▁모습을	-9.62088
▁들	-9.6219
▁보인다	-9.62213
친	-9.62239
▁티	-9.62239
▁버스	-9.6226
▁밝혔다	-9.62492
▁의견을	-9.62494
▁가족	-9.62553
▁어떻게	-9.62603
▁교황	-9.62848
▁언어	-9.62875
▁내용	-9.62877
든	-9.62974
▁삼성	-9.63001
▁c	-9.63003
▁도입	-9.63017
▁특정	-9.63051
▁부인	-9.63096
▁결혼	-9.63244
▁먼저	-9.63408
cm	-9.63449
▁걸	-9.6354
▁채널	-9.6369
▁정규	-9.63794
st	-9.63899
먼	-9.63906
▁것이라고	-9.64061
▁회장	-9.64249
37	-9.64257
▁것도	-9.64287
머	-9.64287
시켜	-9.64524
컵	-9.64555
욱	-9.64649
▁않아	-9.64651
▁시설	-9.64653
52	-9.6466
▁관	-9.64756
34	-9.64805
▁고대	-9.64815
▁최초로	-9.64978
▁등으로	-9.65112
▁다만	-9.65112
▁is	-9.65117
▁추	-9.65136
▁개통	-9.65245
돌	-9.65287
때	-9.65351
춘	-9.6536
50	-9.6536
▁출처	-9.65368
▁연방	-9.65532
▁승리	-9.65535
▁제국	-9.65556
60	-9.65577
▁왜	-9.65613
되며	-9.65644
▁내용을	-9.65714
「	-9.65754
했는데	-9.65928
▁제목	-9.65931
▁멤버	-9.66005
▁대부분의	-9.66134
▁참조	-9.66164
▁말했다	-9.66322
▁환경	-9.66364
▁1983	-9.66415
▁되었고	-9.66446
an	-9.66457
일에는	-9.66556
센	-9.66637
혜	-9.66648
▁이와	-9.66675
▁Y	-9.66686
성우	-9.6669
있는	-9.66777
관리	-9.66847
▁스페인	-9.66916
▁:\	-9.67005
80	-9.67008
▁통산	-9.6711
▁선택	-9.67116
▁귀	-9.67134
▁폐지	-9.67252
▁단체	-9.6732
조선	-9.67403
▁쿠	-9.67418
▁II	-9.67546
▁표	-9.6755
기여	-9.67578
▁페	-9.67688
▁하다	-9.67875
▁인간	-9.67978
견	-9.68069
▁국회	-9.68108
톤	-9.68223
▁월드	-9.68253
시키는	-9.68301
권을	-9.68374
▁비디오	-9.6849
▁학생	-9.68524
볼	-9.68564
▁사이트	-9.6857
서울	-9.68577
▁그런	-9.68669
▁개최	-9.6876
▁대부분	-9.68872
▁이렇게	-9.68906
▁뉴욕	-9.68919
▁확장	-9.68947
시에	-9.68974
▁발견	-9.69019
▁배우이다	-9.69096
▁인구는	-9.69163
▁나라	-9.69277
2,	-9.69394
함으로써	-9.69423
▁표현	-9.69622
▁개시	-9.6965
▁민족	-9.69806
▁소설	-9.69821
▁자주	-9.69856
▁통	-9.69899
▁법률	-9.699
▁없습니다	-9.69953
▁뜻은	-9.70147
▁at	-9.70304
▁사고	-9.70362
子	-9.70371
▁소개	-9.70426
98	-9.70426
▁더욱	-9.70451
co	-9.70471
마다	-9.70537
들에	-9.70558
걸	-9.7058
▁곧	-9.70604
카와	-9.70617
▁정도로	-9.70671
it	-9.70715
▁전라남도	-9.70814
날	-9.70859
▁조정	-9.70874
▁1981	-9.709
▁In	-9.70965
비고	-9.71019
88	-9.71229
▁1982	-9.71235
정보	-9.7125
}\	-9.71317
ar	-9.71446
▁향	-9.71465
▁정책	-9.71466
is	-9.71466
흥	-9.71515
天	-9.71643
밀	-9.71718
▁지명	-9.71766
알	-9.71769
▁지구	-9.71791
택	-9.7182
하도록	-9.71892
▁그녀는	-9.71949
▁폴란드	-9.72003
글	-9.72059
▁전문	-9.72081
▁이름은	-9.72163
▁함	-9.72168
▁교장	-9.7218
人	-9.7227
군의	-9.72291
나무	-9.72295
"},	-9.72323
▁하나의	-9.72438
년간	-9.72504
혁	-9.72548
▁설	-9.72622
▁철	-9.72655
*	-9.72704
시즌	-9.72725
스키	-9.72853
▁차트	-9.72985
▁영국의	-9.7299
▁어린	-9.73055
▁위에	-9.73057
▁있지	-9.73329
다가	-9.7339
▁암	-9.7348
좌	-9.7349
▁필요한	-9.73536
▁올	-9.73643
님	-9.73687
▁류	-9.73687
85	-9.73689
▁의원	-9.73692
례	-9.73862
▁있도록	-9.73904
▁체	-9.73909
▁일이	-9.73923
▁본선	-9.73997
white	-9.74054
▁히	-9.74199
end	-9.74287
▁연합	-9.74398
ion	-9.74416
▁e	-9.74445
▁계약	-9.74563
되기	-9.74579
▁너무	-9.74622
▁여기서	-9.74636
▁주의	-9.74985
南	-9.74994
영화	-9.75023
장을	-9.75139
▁부족	-9.75146
49	-9.75167
▁알고	-9.75184
▁분석	-9.75438
했을	-9.75493
▁적이	-9.75596
▁1960	-9.75642
71	-9.75663
^	-9.75743
▁긴	-9.75813
三	-9.75822
de	-9.75917
자리	-9.7594
▁고등학교	-9.75989
▁경우가	-9.76024
▁특별	-9.76043
安	-9.76079
▁신문	-9.76116
▁샤	-9.76164
산업	-9.76188
자의	-9.762
▁따른	-9.76239
▁예선	-9.76242
누	-9.76282
▁완전히	-9.76285
▁관련된	-9.76312
▁베트남	-9.76354
균	-9.76421
▁복	-9.76422
▁갖고	-9.76427
▁그들의	-9.76472
▁하계	-9.76499
▁판매	-9.76506
▁이름으로	-9.76521
89	-9.76532
man	-9.7656
▁200	-9.7657
black	-9.7666
▁아프리카	-9.76715
▁작가	-9.76873
、	-9.76921
▁1945	-9.76937
▁음	-9.76942
▁식	-9.77038
68	-9.77187
▁스스로	-9.77226
55	-9.77235
▁보면	-9.77347
▁많다	-9.77379
▁만약	-9.77389
▁폴	-9.77427
▁걸쳐	-9.77487
런	-9.77542
세가	-9.77569
75	-9.77578
▁경우에는	-9.777
▁32	-9.77837
▁의하여	-9.77855
family	-9.7789
▁과정에서	-9.77904
▁등과	-9.77955
세는	-9.7796
▁표준	-9.77982
섭	-9.78013
▁것과	-9.78014
▁예술	-9.78086
▁font	-9.78176
社	-9.78208
▁종료	-9.78211
▁차량	-9.7822
▁갈	-9.78285
▁투수	-9.78331
▁60	-9.78363
성이	-9.78367
▁미술	-9.78375
릴	-9.7846
▁골	-9.7847
▁계정	-9.78541
77	-9.78563
▁생	-9.78566
▁—	-9.78604
▁포함한	-9.78633
▁옥	-9.78785
▁with	-9.78807
▁캐릭터	-9.7891
▁영화이다	-9.78934
scope	-9.78947
몬	-9.78962
▁구단	-9.79036
▁남성	-9.79057
▁기관	-9.79111
▁경상남도	-9.79216
59	-9.79239
▁아직	-9.7935
=25|	-9.79429
▁막	-9.79432
▁못했다	-9.79471
▁강화	-9.79496
95	-9.79503
▁이들은	-9.79504
▁출장	-9.7961
스터	-9.79612
▁위의	-9.7962
▁연장	-9.79677
▁생성	-9.79686
org	-9.79828
▁사람들이	-9.79851
▁집단	-9.79858
▁눈	-9.79871
▁일을	-9.79875
▁연극	-9.79985
▁캐나다	-9.79996
▁촬영	-9.80035
▁뉴	-9.80114
▁오후	-9.80253
▁지하철	-9.80272
▁의사	-9.80333
▁국립	-9.80566
지역	-9.8059
▁사용자가	-9.80641
▁자동차	-9.80743
▁남부	-9.80761
▁기존	-9.80785
▁성공	-9.8087
▁경찰	-9.80914
도록	-9.80937
▁돌	-9.81068
▁IP	-9.81091
▁아래	-9.8112
▁:::	-9.81209
워	-9.81298
▁푸	-9.8133
▁있기	-9.81339
갑	-9.81348
86	-9.81384
기관	-9.81415
▁표기	-9.81472
▁LG	-9.81618
▁옛	-9.81652
▁황제	-9.81742
Q	-9.8178
▁동물	-9.81781
▁니	-9.81819
▁디자인	-9.8182
東	-9.81837
▁문학	-9.81868
▁pp	-9.81891
지를	-9.81909
▁비해	-9.81974
▁1979	-9.81975
▁증가	-9.82021
▁사이의	-9.82042
▁건축	-9.82049
▁사용할	-9.82049
엘	-9.82054
국가	-9.82097
▁실제	-9.82098
▁득점	-9.82126
▁출전	-9.82135
▁비판	-9.82165
▁밀	-9.82369
▁후지	-9.82375
▁하이	-9.82378
▁or	-9.8239
▁말을	-9.82407
道	-9.82492
57	-9.82562
國	-9.8257
▁검사	-9.82616
▁독일의	-9.82643
기술	-9.82732
65	-9.82912
▁회사	-9.82975
사업	-9.83011
▁변화	-9.83018
돈	-9.83419
로는	-9.83548
▁동생	-9.83632
▁프랑스의	-9.83639
▁동부	-9.83708
▁중에	-9.83753
64	-9.83857
▁정리	-9.83864
▁판단	-9.83904
▁좀	-9.8396
CC	-9.83978
▁벌	-9.84034
▁제공	-9.84067
}}	-9.84097
▁상대로	-9.84132
▁앤	-9.84147
一	-9.84161
54	-9.84215
▁나가	-9.84367
▁위키	-9.84384
▁특수	-9.84423
▁지역에	-9.84453
中	-9.84475
67	-9.845
▁덕	-9.84504
▁g	-9.84541
▁준우승	-9.84547
▁학력	-9.84651
▁해군	-9.84684
▁물론	-9.84804
76	-9.84821
▁지도	-9.84912
▁대해서	-9.84919
▁설정	-9.84955
▁칸	-9.84956
연도	-9.85057
득	-9.85086
▁속하는	-9.85102
66	-9.85143
▁프리	-9.85194
▁때까지	-9.85196
▁종합	-9.85209
▁공간	-9.85276
▁데이터	-9.85352
틀	-9.85366
▁이유	-9.85501
▁분리	-9.85586
>)	-9.85651
료	-9.85651
▁가능하다	-9.85659
▁비슷한	-9.8571
자와	-9.85717
▁요리	-9.85737
▁가능한	-9.85738
▁CD	-9.85743
▁그린	-9.85785
▁증거	-9.85826
▁아르	-9.85835
▁가정	-9.85881
▁보내	-9.85897
▁이들	-9.85925
▁end	-9.85984
▁1950	-9.86042
▁No	-9.86054
있다	-9.86062
▁생각합니다	-9.86074
팔	-9.86109
▁성적	-9.86123
리스	-9.86319
허	-9.86363
흐	-9.86464
94	-9.86478
모토	-9.86603
▁기획	-9.86627
월에는	-9.8664
▁같습니다	-9.86741
▁적용	-9.86751
▁만화	-9.86753
42	-9.86763
▁{"	-9.86786
▁방영	-9.86899
▁존재한다	-9.87002
▁센터	-9.87122
▁제임스	-9.87166
련	-9.87183
빌	-9.87239
▁건물	-9.87273
▁text	-9.87333
▁00	-9.87353
▁필	-9.87422
▁New	-9.87422
▁1973	-9.87441
氏	-9.87478
▁못한	-9.87486
▁공작	-9.8749
선거구	-9.87516
자는	-9.8759
책	-9.87593
▁알려진	-9.87628
▁해외	-9.87678
▁지난	-9.87686
▁풍	-9.87786
q	-9.87795
▁하루	-9.8786
▁현재는	-9.87894
▁통일	-9.87966
▁때는	-9.8802
▁서부	-9.88033
▁슈퍼	-9.88057
습니다	-9.88203
▁충청남도	-9.88219
가지	-9.88245
▁그들은	-9.88253
지원	-9.88258
▁?	-9.88293
96	-9.88304
▁선수권	-9.88319
▁요구	-9.8844
▁독	-9.88466
▁가능	-9.8848
100	-9.88494
만을	-9.88551
69	-9.88558
▁타이	-9.8865
음악	-9.88689
기는	-9.88699
▁마찬가지로	-9.88727
줄	-9.88805
▁비롯한	-9.88831
곤	-9.88895
▁현재의	-9.88934
▁수는	-9.88971
▁제품	-9.88986
-3	-9.88995
-2	-9.89013
▁작전	-9.8907
97	-9.89139
▁위해서	-9.89189
▁파리	-9.89193
▁엘	-9.89213
▁헤	-9.8926
▁강원도	-9.89272
부문	-9.893
호로	-9.89313
▁레이	-9.89326
운동	-9.89341
▁전혀	-9.89359
▁문제를	-9.89453
年	-9.89522
城	-9.89559
버스	-9.89577
ne	-9.89603
▁와	-9.89615
▁있으나	-9.89658
▁지금	-9.89667
냐	-9.89671
87	-9.89946
▁항상	-9.90182
▁제도	-9.90243
56	-9.90317
▁위원	-9.90323
▁사장	-9.90402
79	-9.9041
日	-9.90507
▁사용한다	-9.9052
▁홈	-9.90551
쉬	-9.90554
만이	-9.90559
자를	-9.90629
▁광고	-9.90662
▁기호	-9.90684
▁쓴	-9.90687
74	-9.90706
▁기록했다	-9.90746
무라	-9.90785
镇	-9.90927
63	-9.90954
▁망	-9.90967
▁오스트리아	-9.91129
웅	-9.91141
▁풀	-9.91148
연구	-9.91198
▁목적으로	-9.91226
▁이듬해	-9.91257
78	-9.91289
▁형성	-9.91355
▁09	-9.91385
▁웹사이트	-9.91453
▁부여	-9.91461
▁에너지	-9.9147
▁중심	-9.91505
▁것입니다	-9.9156
▁박사	-9.91562
▁아니	-9.91571
▁돈	-9.91599
▁보도	-9.91657
▁if	-9.91662
▁이적	-9.91692
▁만에	-9.91725
혼	-9.91807
▁버	-9.91846
▁쓰	-9.91863
졌다	-9.91939
올	-9.9196
▁그림	-9.92008
취	-9.92008
존	-9.92085
▁설계	-9.92098
▁마리	-9.92136
▁하나이다	-9.9214
람	-9.92151
▁않다	-9.92253
블	-9.92268
▁밴드	-9.92301
▁실시	-9.92473
▁1972	-9.92511
▁출시	-9.9252
▁시기	-9.92569
명이다	-9.92583
▁필요	-9.92636
mathcal	-9.92651
▁(2)	-9.92663
묘	-9.92673
▁지배	-9.92724
아이	-9.92773
news	-9.92896
▁(2011	-9.92909
▁나머지	-9.9294
il	-9.93105
▁1974	-9.93184
▁마이	-9.93189
法	-9.93221
▁의미	-9.9328
é	-9.93318
▁추진	-9.93397
▁승격	-9.93495
▁대수	-9.9352
▁앞	-9.93522
▁맡았다	-9.93573
▁(2009	-9.93592
상을	-9.93597
▁실험	-9.93614
▁형사	-9.93615
척	-9.9373
벌	-9.93779
▁신청	-9.93821
▁시행	-9.93841
▁못하고	-9.93877
at	-9.9388
▁1978	-9.93898
염	-9.93907
▁표시	-9.93922
엽	-9.9393
했다고	-9.93937
ine	-9.93959
스는	-9.9396
하려	-9.93967
▁상대	-9.94002
▁(2012	-9.94012
▁한국의	-9.94018
그룹	-9.94094
▁(2010	-9.94099
▁버전	-9.9413
▁이해	-9.94145
▁(2013	-9.94312
▁조지	-9.94313
하나	-9.94313
84	-9.94347
▁세포	-9.9448
▁끝에	-9.94522
▁시험	-9.94527
▁인한	-9.94539
▁확대	-9.94557
됨	-9.9458
▁영상	-9.94654
73	-9.94674
▁칼	-9.94745
▁성장	-9.94774
▁되지	-9.94919
▁해석	-9.94935
▁기후	-9.94958
里	-9.9507
검	-9.95145
(\	-9.95162
사회	-9.95242
월부터	-9.95251
▁University	-9.95268
▁Q	-9.95288
▁환	-9.95295
▁(2014	-9.95309
81	-9.95354
jpg	-9.95377
▁그래서	-9.95525
▁등록	-9.95531
▁것이었다	-9.95565
▁널리	-9.95568
▁},	-9.95736
병원	-9.95805
▁특징	-9.95817
▁네덜란드	-9.95845
▁명칭	-9.95861
▁개선	-9.95862
율	-9.95876
^2	-9.95947
▁상태	-9.96111
▁(2015	-9.96136
▁영업	-9.96144
긴	-9.96167
▁불리는	-9.96167
▁작업	-9.96169
▁하나로	-9.96207
▁경영	-9.96258
▁문자	-9.9627
선수	-9.96435
58	-9.96493
▁의미한다	-9.96513
▁시도	-9.96538
칠	-9.96543
=40|	-9.96547
▁행동	-9.96566
▁준비	-9.96597
▁연기	-9.96632
▁보다	-9.96694
▁배치	-9.9673
연대	-9.96856
▁뿐	-9.97043
▁범	-9.97052
▁악	-9.97084
시장	-9.97095
▁02	-9.97121
▁문서에	-9.97171
正	-9.9719
싱	-9.9723
▁저는	-9.97255
▁발행	-9.97279
▁코드	-9.97293
62	-9.97326
▁조연	-9.97334
et	-9.97453
선의	-9.97476
▁사실을	-9.97482
▁의하면	-9.97528
el	-9.97556
▁(<	-9.97614
▁북부	-9.97624
▁논란	-9.97627
▁비밀	-9.97631
▁발사	-9.9771
2)	-9.97802
▁1971	-9.97821
뉴스	-9.9787
▁색	-9.97893
죠	-9.97915
pt	-9.97933
되었으나	-9.97989
▁합	-9.98
거리	-9.9801
▁혁명	-9.9805
응	-9.9812
▁1976	-9.98151
대회	-9.98161
▁제국의	-9.98206
▁유명한	-9.98254
▁그녀의	-9.98286
▁육	-9.98385
▁※	-9.98432
▁글을	-9.98449
사용자	-9.98518
한다는	-9.98531
▁전환	-9.98587
공사	-9.98615
푸	-9.98675
▁뮤직	-9.98886
몽	-9.99034
83	-9.9904
▁행사	-9.99116
▁폰	-9.99116
▁아니다	-9.99158
▁i	-9.99169
▁이름이	-9.99176
72	-9.99251
▁의견	-9.99292
▁신라	-9.99318
▁둘	-9.99329
하였는데	-9.99376
▁강한	-9.99377
▁수행	-9.99413
61	-9.99427
▁우승을	-9.99516
지도	-9.99627
▁높이	-9.99633
하기로	-9.99669
순위	-9.99675
▁조성	-9.99708
▁않습니다	-9.99831
▁지하	-9.99847
82	-10.0001
▁1975	-10.0001
州	-10.0002
▁center	-10.0005
▁형태로	-10.0006
▁배경	-10.0009
{\	-10.001
▁불교	-10.0012
▁파괴	-10.0013
▁정보를	-10.0013
▁1969	-10.0015
ers	-10.0021
▁각종	-10.0025
레이	-10.0033
▁re	-10.0034
군은	-10.0038
위에	-10.0041
▁선수이다	-10.0044
宗	-10.0044
▁항목	-10.0045
▁개교	-10.0053
▁인정	-10.006
▁런던	-10.0063
나가	-10.0063
▁나무	-10.0066
▁오른쪽	-10.0069
▁소프트웨어	-10.008
▁근	-10.0083
▁검	-10.0086
▁브라질	-10.0088
▁장관	-10.01
▁}	-10.01
▁협회	-10.0117
액	-10.012
▁몇몇	-10.0139
▁가는	-10.0143
▁만드는	-10.0145
기가	-10.0147
▁태풍	-10.0149
▁새로	-10.0159
협	-10.0164
튼	-10.0171
▁평화	-10.0173
▁없어	-10.0177
▁문서의	-10.0178
팅	-10.0187
▁통과	-10.0192
▁시민	-10.0192
▁민주당	-10.0195
▁과정	-10.0202
▁교체	-10.0209
▁지적	-10.0209
田	-10.0211
▁하기	-10.0216
▁(1	-10.0223
▁(2008	-10.023
▁여행	-10.0236
문서	-10.024
단체	-10.0247
▁1977	-10.0248
▁가리킨다	-10.025
元	-10.0251
▁태양	-10.0252
▁관측	-10.0259
▁편곡	-10.026
▁지지	-10.026
▁누	-10.0262
▁카드	-10.0266
▁내용이	-10.027
▁제안	-10.027
um	-10.0271
▁대체	-10.028
▁경기장	-10.0284
son	-10.0286
平	-10.0287
▁500	-10.0288
▁일정	-10.0289
▁한다고	-10.0298
▁훼손	-10.0299
▁여름	-10.03
▁않을	-10.0302
탑	-10.0306
▁k	-10.0309
▁1968	-10.031
▁집합	-10.0314
이므로	-10.0314
랜드	-10.0315
▁t	-10.0315
▁담당	-10.0325
▁(2016	-10.0329
▁멕시코	-10.033
삼거리	-10.0339
▁개혁	-10.0342
쳐	-10.0344
▁대응	-10.0364
▁35	-10.0366
▁전달	-10.0372
▁수많은	-10.0372
▁없다고	-10.0374
▁팀의	-10.0375
mathbf	-10.038
▁뒤에	-10.0381
시마	-10.0383
▁최다	-10.0383
경제	-10.0387
▁합계	-10.0389
▁인용	-10.0397
▁오사카	-10.0397
▁스페셜	-10.0405
▁마리아	-10.0413
▁제한	-10.0415
드라마	-10.0416
자로	-10.0424
션	-10.0425
▁실제로	-10.0441
▁평	-10.0442
▁헌법	-10.0444
▁밖에	-10.0455
▁제외한	-10.0456
▁절	-10.0456
▁언론	-10.0466
▁일제	-10.0468
나라	-10.047
▁##	-10.0476
▁업무	-10.0485
레스	-10.0488
ton	-10.0502
본부	-10.0502
▁남아	-10.0509
▁갑	-10.0511
▁있었고	-10.0513
킹	-10.0516
▁경쟁	-10.0532
도시	-10.0535
▁내부	-10.0539
하려는	-10.054
사를	-10.0542
앙	-10.0543
▁함수	-10.0548
▁항	-10.0552
ie	-10.0554
▁일단	-10.0555
▁금지	-10.0561
EC	-10.0561
시설	-10.0576
▁테	-10.0578
네요	-10.0581
참	-10.0588
▁나온	-10.0589
임을	-10.0591
인지	-10.0591
▁통치	-10.0592
92	-10.0604
▁록	-10.0612
▁아내	-10.0616
▁방어	-10.0618
▁기계	-10.0621
▁전용	-10.0625
사건	-10.0631
▁*《	-10.0633
▁신경	-10.0637
▁무장	-10.0638
▁제조	-10.065
▁중에서	-10.0652
▁기념	-10.0654
▁인수	-10.0655
▁소련	-10.0655
시키고	-10.0656
롱	-10.0659
▁마을	-10.0663
▁v	-10.0668
明	-10.0669
▁SK	-10.067
ge	-10.067
여자	-10.0675
▁사람은	-10.0679
▁맨	-10.0683
▁(2	-10.0683
대한민국	-10.0684
▁개정	-10.0684
▁교회	-10.0688
pi	-10.0689
▁투표	-10.069
탁	-10.0691
▁구분	-10.0694
개발	-10.0695
스의	-10.0705
징	-10.0713
▁꽃	-10.0715
▁Me	-10.0717
▁질	-10.072
와는	-10.0723
▁감소	-10.0723
▁처	-10.0725
▁1963	-10.0734
▁임시	-10.0738
ry	-10.0744
▁Press	-10.0748
weight	-10.0749
른	-10.075
▁곳에	-10.0752
전에서	-10.0764
▁(2007	-10.0775
▁블랙	-10.078
ter	-10.0791
기에	-10.0792
▁최근	-10.0795
▁나중에	-10.08
▁해서	-10.0804
▁안에	-10.081
▁신설	-10.0811
측	-10.082
▁그해	-10.0827
릉	-10.083
▁지역에서	-10.0833
까	-10.0836
▁class	-10.0838
▁주도	-10.0838
▁녹음	-10.0843
▁지정되었다	-10.0848
-4	-10.0848
▁유일한	-10.085
▁방법	-10.0859
▁홀	-10.0869
▁곳	-10.0872
▁개편	-10.0875
▁중간	-10.0875
젠	-10.0876
간의	-10.0877
▁열차	-10.0878
▁최고의	-10.0878
▁마이클	-10.0889
▁연주	-10.0889
▁사항	-10.0898
▁정치적	-10.0901
홀	-10.0902
▁라이선스	-10.0909
▁그런데	-10.0916
川	-10.0921
93	-10.0924
▁되	-10.093
▁결합	-10.0935
▁롯데	-10.0938
베르	-10.0941
콘	-10.0948
▁죽음	-10.0954
▁무기	-10.0956
▁없고	-10.0957
▁핵	-10.0963
정부	-10.0964
시킨	-10.0968
月	-10.0969
▁행성	-10.0971
▁극	-10.0972
▁소년	-10.0977
▁식물	-10.0991
▁미디어	-10.0993
▁웹	-10.0996
▁땅	-10.1001
事	-10.1014
▁계열	-10.1015
▁이용하여	-10.1022
▁거리	-10.1022
죄	-10.1022
▁정식	-10.1028
▁나들목	-10.1033
사가	-10.1034
▁시각	-10.1039
▁장소	-10.104
▁중단	-10.1042
▁윌리엄	-10.1043
▁World	-10.1045
00	-10.1048
점을	-10.1057
세대	-10.1063
▁유리	-10.1065
▁local	-10.1068
하다가	-10.1068
과학	-10.1072
▁1967	-10.1074
▁주는	-10.1077
論	-10.108
▁전라북도	-10.108
▁경기를	-10.1086
上	-10.1097
▁이사	-10.1097
▁반응	-10.1098
▁다이	-10.1102
ir	-10.1105
과는	-10.111
長	-10.1113
▁발달	-10.1114
▁길이	-10.1115
▁간의	-10.112
▁**	-10.1122
▁시작하였다	-10.1124
▁머리	-10.1125
▁프로듀서	-10.1125
▁인식	-10.1126
게임	-10.113
ist	-10.1135
ch	-10.1137
▁오히려	-10.1148
ian	-10.1152
▁대사	-10.1155
결과	-10.1159
▁\\	-10.1164
▁훈련	-10.1165
▁부른다	-10.1171
함을	-10.1172
▁사람들	-10.1177
▁쉽게	-10.1183
▁반복	-10.1184
▁우선	-10.1192
▁엔	-10.1194
▁북한	-10.1198
ra	-10.1198
▁기능을	-10.1199
▁염	-10.12
▁임명	-10.1201
▁중화인민공화국	-10.1201
▁선언	-10.1204
▁기대	-10.1214
▁목적	-10.1221
었고	-10.1222
▁이번	-10.1223
이름	-10.1223
▁70	-10.1224
▁팬	-10.1225
▁정부는	-10.1228
▁더불어	-10.1228
씩	-10.1232
▁기존의	-10.1236
▁울	-10.1238
압	-10.124
▁대표적인	-10.1242
▁하면	-10.1243
▁케	-10.1243
▁관계를	-10.1259
▁식민지	-10.126
▁아일랜드	-10.1262
▁선수로	-10.1263
▁자신을	-10.1263
시아	-10.1276
▁하자	-10.1276
▁온라인	-10.1279
정책	-10.1282
농	-10.1295
▁탄생	-10.1295
▁분쟁	-10.1297
덴	-10.1298
것	-10.1304
ad	-10.1305
사랑	-10.1306
:00	-10.131
▁지도자	-10.1319
▁전통	-10.1321
▁통한	-10.1322
91	-10.1329
잔	-10.1329
▁범죄	-10.1341
成	-10.1342
▁유도	-10.1343
▁FA	-10.1347
침	-10.1351
▁논	-10.1351
▁80	-10.1352
니아	-10.1353
▁에피소드	-10.1356
되자	-10.1358
colon	-10.1364
페이지	-10.137
▁육상	-10.1371
▁직	-10.1371
▁복귀	-10.1379
없이	-10.1381
일자	-10.1384
▁청소년	-10.1395
▁사람을	-10.1398
인의	-10.1405
▁씨	-10.1406
▁실행	-10.1414
▁바탕으로	-10.1419
▁규정	-10.1419
▁울산	-10.1424
▁형태	-10.1426
公	-10.1428
지방	-10.1429
▁몸	-10.143
겐	-10.1431
▁수사	-10.1432
▁You	-10.1432
다이	-10.1434
▁주인공	-10.1439
▁음력	-10.1441
▁협력	-10.1444
▁나오는	-10.1452
▁만나	-10.1453
▁챔피언	-10.1454
▁수록	-10.146
▁힘을	-10.1468
군을	-10.147
▁왔다	-10.1474
투니버스	-10.148
틴	-10.1485
▁낮은	-10.1487
ang	-10.1488
▁찬성	-10.1491
▁플레이	-10.1493
▁전주	-10.1494
▁통하여	-10.1495
▁내각	-10.1505
▁고시	-10.1506
▁03	-10.1507
as	-10.1511
골을	-10.1512
▁수학	-10.1514
사와	-10.1515
뉴	-10.1516
▁보는	-10.1517
▁명단	-10.1527
▁하위	-10.1527
▁가까운	-10.1535
land	-10.1542
상의	-10.1546
▁개칭	-10.1553
matrix	-10.1554
▁남편	-10.1554
▁충돌	-10.1555
Xã	-10.1557
『	-10.1557
▁치료	-10.1558
▁return	-10.1558
▁수원	-10.1578
ment	-10.1578
▁조각	-10.1581
▁있었지만	-10.1585
▁공립	-10.1586
▁점령	-10.1586
폰	-10.1586
▁해결	-10.1587
▁사실상	-10.159
▁달성	-10.159
▁빌	-10.1594
▁네이버	-10.1599
▁네트워크	-10.1602
▁흑	-10.1603
▁수립	-10.1609
▁터키	-10.1617
▁Love	-10.1618
▁베스트	-10.1622
▁변호사	-10.1623
▁1948	-10.1624
시의	-10.1628
위원	-10.1631
▁여전히	-10.1639
▁36	-10.1639
kr	-10.164
▁지냈다	-10.164
▁기록을	-10.1647
▁천황	-10.165
▁1964	-10.1654
▁보존	-10.1656
▁졸업식	-10.1658
▁소녀	-10.1661
▁시티	-10.1664
▁사람의	-10.1666
▁출신의	-10.1673
세계	-10.168
▁스위스	-10.1684
▁사이에서	-10.1687
▁잔	-10.1689
▁언급	-10.1691
▁국경	-10.1692
▁!3	-10.1692
▁라이브	-10.1694
딩	-10.1696
▁기억	-10.1696
▁300	-10.1705
▁때에는	-10.1706
▁계산	-10.1714
▁뿐만	-10.1714
▁사용된다	-10.1715
▁메이	-10.1721
ta	-10.1729
▁엔진	-10.173
ur	-10.1731
▁중국의	-10.1732
▁준공	-10.1734
▁공격을	-10.1734
▁1962	-10.174
육	-10.1741
▁증	-10.1746
▁완성	-10.1747
▁오스트레일리아	-10.1748
▁한다는	-10.175
乡	-10.175
▁시장	-10.1752
▁김영	-10.1761
▁(2017	-10.1761
▁스웨덴	-10.1762
▁경험	-10.1762
▁노동	-10.1772
kg	-10.178
▁1966	-10.1784
대상	-10.1788
▁then	-10.1791
벨	-10.1792
▁공주	-10.1793
▁일어난	-10.1796
▁다중	-10.1797
▁(2006	-10.1797
▁저서	-10.1803
▁봄	-10.1809
▁미국에서	-10.1814
한다고	-10.1818
西	-10.182
역사	-10.1823
▁be	-10.1831
▁꿈	-10.1837
000	-10.1839
사의	-10.184
▁그렇게	-10.184
▁인사	-10.1841
▁가입	-10.1844
리에	-10.1847
▁1946	-10.1848
위로	-10.1849
▁은퇴	-10.1852
cc	-10.186
(1	-10.1863
▁출판	-10.1865
海	-10.1871
은행	-10.1872
▁타이틀	-10.1873
▁아닙니다	-10.1878
▁위반	-10.1878
▁로버트	-10.1884
▁통신	-10.1893
→	-10.1894
▁잘못	-10.1895
▁감독의	-10.1906
▁내에서	-10.1908
▁제대로	-10.1913
▁전개	-10.1918
ul	-10.1922
▁연출	-10.1934
▁유로	-10.1942
▁직원	-10.195
▁만들	-10.1953
un	-10.1953
▁농업	-10.1953
되기도	-10.1953
.《	-10.1954
▁홍콩	-10.1962
▁위키백과의	-10.1962
플	-10.1965
▁반면	-10.1971
▁메이저	-10.1973
대를	-10.1976
객	-10.1982
▁만들었다	-10.1984
▁정치인	-10.1989
德	-10.199
▁합의	-10.1994
▁해방	-10.1994
▁경우도	-10.1995
▁강력한	-10.1995
장이	-10.2003
}(	-10.2007
기로	-10.2008
명은	-10.2008
▁운	-10.2011
으나	-10.2012
行	-10.2013
▁승리를	-10.2015
▁이론	-10.2015
▁만들어진	-10.202
회사	-10.2024
▁바랍니다	-10.2024
▁공사	-10.2027
▁08	-10.2035
▁받는	-10.2038
▁주었다	-10.2041
no	-10.2043
▁1965	-10.2046
義	-10.2048
▁엄	-10.2049
신문	-10.205
▁솔로	-10.2051
▁실패	-10.2061
▁방송국	-10.2068
▁접근	-10.2069
로써	-10.2073
▁조약	-10.2078
▁최초	-10.2079
▁접	-10.2082
▁필리핀	-10.2082
▁아주	-10.2084
▁들어가	-10.2089
▁정부의	-10.209
으로는	-10.2094
▁힘	-10.2094
▁부정	-10.2095
▁왼쪽	-10.2097
▁역할	-10.2101
▁반란	-10.2108
▁시청률	-10.2108
▁오픈	-10.2109
▁공군	-10.2112
▁쓰는	-10.2112
家	-10.2118
현재	-10.212
▁면	-10.2123
▁위원장	-10.2125
▁교사	-10.2131
▁/>	-10.2133
모리	-10.2134
▁부대	-10.2136
▁획득	-10.214
▁붕괴	-10.2141
세를	-10.2143
▁45	-10.2143
보다는	-10.2144
▁탈	-10.2145
시킬	-10.2146
▁소리	-10.2151
▁종류	-10.2151
▁오전	-10.2155
▁예정	-10.2158
▁연대	-10.2162
▁상황	-10.2163
▁둔	-10.2168
로스	-10.217
_1	-10.2172
으로써	-10.2173
시대	-10.2182
▁나는	-10.2186
우리	-10.2186
▁수가	-10.2194
랄	-10.2194
im	-10.2194
▁잡지	-10.2195
제목	-10.2196
▁여객철도	-10.2199
:18	-10.2201
▁형식	-10.2202
▁포르투갈	-10.2204
▁보이는	-10.2208
탕	-10.2211
킨	-10.2212
차원	-10.2213
〈	-10.2215
▁일반적인	-10.2218
▁임기	-10.2223
력을	-10.2223
미국	-10.2224
▁지역을	-10.2224
▁군주	-10.2225
교회	-10.2227
▁커	-10.2233
▁학	-10.2234
명으로	-10.2235
▁이유는	-10.2239
▁1949	-10.2239
▁박물관	-10.2241
▁한번	-10.2241
▁사후	-10.2243
▁직후	-10.2251
ー	-10.2254
▁전투에서	-10.2254
텐	-10.2256
ity	-10.2258
칭	-10.2258
▁상호	-10.2267
▁거부	-10.227
▁구성되어	-10.2275
-19	-10.2276
ce	-10.2278
▁제주	-10.2278
▁최우수	-10.2284
▁좌	-10.2286
▁방문	-10.2294
▁회복	-10.2297
▁1961	-10.2305
▁시대의	-10.2311
▁회의	-10.2311
으면	-10.2312
te	-10.2312
▁지진	-10.2313
▁탄	-10.2317
▁검색	-10.2319
▁제정	-10.232
▁사용하여	-10.2321
착	-10.2321
▁군인	-10.2322
기간	-10.2324
▁연맹	-10.2326
▁축	-10.2327
움	-10.2329
부대	-10.2341
군이	-10.2346
▁죽	-10.235
최	-10.2358
▁잠시	-10.2358
▁전차	-10.2358
▁사용자는	-10.236
름	-10.2365
▁방식으로	-10.2366
▁젊은	-10.2367
▁국왕	-10.2376
ff	-10.2381
▁도움을	-10.239
웨이	-10.2394
=20	-10.2397
部	-10.2399
▁이전에	-10.2399
▁터	-10.2399
▁콘서트	-10.2403
▁주장했다	-10.2404
▁Part	-10.2404
▁페이지	-10.2405
베이	-10.2408
▁충청북도	-10.241
▁선출	-10.241
▁에이	-10.241
▁전부	-10.2412
하려고	-10.2414
▁취	-10.2415
이닝	-10.2417
▁장군	-10.242
:19	-10.2427
▁장비	-10.2431
▁총리	-10.2431
▁입력	-10.2432
▁만큼	-10.2432
▁제시	-10.2438
같은	-10.2442
▁1000	-10.2447
▁요시	-10.2449
FFFFFF	-10.2451
光	-10.2459
▁가톨릭	-10.2466
▁시간이	-10.2467
地	-10.2469
▁사용한	-10.2473
▁해야	-10.2474
▁뇌	-10.248
▁작용	-10.248
▁모리	-10.248
▁체결	-10.2482
▁안내	-10.2486
▁면적은	-10.2489
▁후반	-10.25
▁헝가리	-10.2503
▁배역	-10.2509
분류	-10.2511
os	-10.2513
로서의	-10.2523
▁하는데	-10.2525
▁관심을	-10.2525
▁본래	-10.2526
이기	-10.2527
▁뮤지컬	-10.2529
▁인하여	-10.253
▁(3)	-10.2532
들로	-10.2535
▁운용	-10.254
꽃	-10.2545
▁좋아	-10.2555
生	-10.256
▁33	-10.2561
▁폐	-10.2563
▁찾아	-10.2571
▁대학원	-10.2575
▁아르헨티나	-10.2583
▁(2005	-10.2588
▁행위	-10.2591
▁사용되는	-10.2592
▁as	-10.2595
▁04	-10.2596
▁엔터테인먼트	-10.2597
▁소장	-10.26
폭	-10.2608
▁앞서	-10.2612
▁무역	-10.2623
▁죽은	-10.2623
(18	-10.2623
▁지상	-10.2624
▁안전	-10.2627
들도	-10.2628
▁가능성이	-10.2629
지마	-10.2632
▁•	-10.2636
ᆞ	-10.2643
▁이집트	-10.2644
▁공급	-10.2644
▁1940	-10.2651
▁듯	-10.2652
▁건강	-10.2654
▁De	-10.2657
ak	-10.2658
▁활용	-10.2658
▁호텔	-10.2659
카드	-10.2662
▁옮겨	-10.2665
했습니다	-10.2666
▁왕국	-10.2666
사이	-10.2671
▁background	-10.2674
▁사회주의	-10.2677
슬	-10.2678
▁동계	-10.2681
▁노력	-10.2682
▁효	-10.2682
▁은행	-10.2685
기업	-10.2686
▁홈런	-10.2688
▁날짜	-10.2689
사단	-10.2689
新	-10.2692
▁입단	-10.2695
▁이제	-10.2696
5%	-10.27
▁폭	-10.27
▁떠나	-10.2701
▁아침	-10.2703
에게는	-10.2724
▁기구	-10.273
▁의해서	-10.2732
=1	-10.2733
▁즉위	-10.2738
십	-10.2741
헤	-10.2742
▁La	-10.2745
혈	-10.2745
지구	-10.2746
벽	-10.2748
▁등장하는	-10.275
▁묘	-10.2752
se	-10.2754
▁경주	-10.2755
ent	-10.2759
▁크	-10.2759
▁논의	-10.2761
▁종목	-10.277
딘	-10.2773
▁허용	-10.2782
수가	-10.2785
▁성인	-10.2787
▁지휘	-10.2806
ac	-10.2808
▁아메리카	-10.2809
▁저작권	-10.281
寺	-10.281
▁장기	-10.281
▁다카	-10.2815
▁토론을	-10.2815
▁맞	-10.2816
▁외교	-10.2818
▁챔피언스리그	-10.282
▁엄마	-10.282
▁챔피언십	-10.2821
▁지리	-10.2825
▁위성	-10.2825
▁됩니다	-10.2827
▁마크	-10.283
▁보컬	-10.283
▁등은	-10.2831
▁장치	-10.2834
▁입학	-10.2837
▁측정	-10.2837
="6%"|	-10.2838
▁수입	-10.2839
-10	-10.284
▁불린다	-10.284
▁도서관	-10.2842
연구소	-10.2844
▁공원	-10.2849
솔	-10.285
득점	-10.2852
작곡	-10.2852
았다	-10.2856
▁다리	-10.2856
▁자리를	-10.2859
▁득표율	-10.2871
green	-10.2871
우스	-10.2872
활동	-10.2877
▁적은	-10.2883
카이	-10.2884
▁헨리	-10.2885
▁제작된	-10.2887
▁y	-10.2887
▁떨어진	-10.2888
▁계약을	-10.2892
펜	-10.2893
▁휴	-10.29
▁활약	-10.2901
▁경계	-10.2901
▁상당히	-10.2909
ism	-10.2911
▁농	-10.2916
ro	-10.2918
▁외에도	-10.2924
▁저항	-10.2927
스크	-10.2929
▁사회적	-10.2932
▁피해	-10.2932
▁코치	-10.2938
▁청년	-10.2939
)\	-10.2943
am	-10.2949
습	-10.2959
▁핀란드	-10.2959
▁퍼	-10.2965
월까지	-10.2967
FM	-10.2968
▁섬네일	-10.2975
▁집중	-10.298
▁#:	-10.2986
▁대형	-10.2986
=20|	-10.2993
▁어린이	-10.2993
▁이것이	-10.3
▁미사일	-10.3
▁기원	-10.3004
▁태평양	-10.3004
▁단위	-10.3005
高	-10.3007
▁자리	-10.3007
▁화학	-10.3009
메이	-10.3012
▁홍보	-10.3013
▁속에서	-10.3016
장으로	-10.3023
사거리	-10.3025
▁동일한	-10.3031
▁완	-10.3031
▁머	-10.3032
▁벤	-10.3038
▁외국인	-10.3045
▁name	-10.3051
▁루이	-10.3052
▁권한	-10.3052
ate	-10.3058
▁출발	-10.3062
▁동료	-10.3068
▁고종	-10.3068
▁휘	-10.3069
▁콜	-10.3069
;"|↔	-10.3071
릭	-10.3074
net	-10.3075
▁선의	-10.3076
도서관	-10.3079
▁사람들은	-10.3083
마을	-10.3085
▁증명	-10.3087
▁사는	-10.3088
:30	-10.3089
▁38	-10.3093
▁조금	-10.3101
▁반드시	-10.3104
되었는데	-10.3105
▁정도의	-10.3108
▁발매일	-10.311
▁작	-10.3116
였으며	-10.3123
빛	-10.3124
몰	-10.3126
▁잠	-10.3127
▁!2	-10.3129
▁사유	-10.3134
직을	-10.3137
▁혼	-10.314
▁트랙	-10.314
▁1920	-10.3147
▁DVD	-10.3149
▁얼마	-10.315
▁통제	-10.3158
▁확보	-10.3161
▁윈도우	-10.3161
▁건축물	-10.3164
▁점을	-10.3164
▁그러한	-10.3167
제를	-10.3168
Re	-10.3171
▁영토	-10.3175
라면	-10.3176
셀	-10.3181
요시	-10.3183
▁계승	-10.3184
국제	-10.3188
-5	-10.319
AL	-10.32
▁그리	-10.3202
▁내용은	-10.3203
▁34	-10.3213
cccccc	-10.3215
진다	-10.3225
ン	-10.3227
항공	-10.3233
▁부산광역시	-10.3234
님이	-10.3242
=30|	-10.3246
▁부활	-10.3247
▁인가	-10.3252
▁러브	-10.3261
▁마드리드	-10.3262
▁h	-10.327
인이	-10.3271
▁부임	-10.3278
▁{{	-10.3279
닝	-10.3282
▁급	-10.3286
▁올랐다	-10.3288
▁교토	-10.3289
▁대륙	-10.3292
est	-10.3295
▁영입	-10.3297
▁속에	-10.3299
▁이후에	-10.3302
▁브랜드	-10.3303
▁이미지	-10.3307
▁이루어져	-10.3308
▁label	-10.3312
▁대회에서	-10.3314
나는	-10.3315
풀	-10.3315
▁되었으며	-10.3316
int	-10.3325
▁필요가	-10.3329
▁발표했다	-10.3331
▁전사	-10.3332
공원	-10.3335
▁OST	-10.3337
년도	-10.3338
▁강제	-10.3339
▁대상으로	-10.3342
되었던	-10.3348
▁유나이티드	-10.3356
▁나서	-10.3358
▁비행	-10.3365
無	-10.3367
▁점차	-10.3372
▁칠	-10.3372
▁전후	-10.3373
성의	-10.3374
▁비교	-10.3379
▁했지만	-10.3379
▁tvN	-10.3384
▁폭발	-10.3384
▁자동	-10.3385
▁라인	-10.3385
▁r	-10.3392
▁90	-10.3392
▁명예	-10.3393
▁올해의	-10.3396
武	-10.3396
▁권리	-10.3397
▁김성	-10.3401
하이	-10.3402
▁1930	-10.3403
▁인간의	-10.3408
▁1941	-10.341
水	-10.3411
▁수용	-10.3415
▁진화	-10.342
되면	-10.3422
적이고	-10.3422
▁능	-10.3423
▁부분이	-10.3424
▁등에서	-10.3433
▁구장	-10.3438
렬	-10.3443
▁글로벌	-10.3445
^{	-10.3449
리는	-10.3451
▁1944	-10.3454
셔	-10.3455
▁사망하였다	-10.3456
▁시기에	-10.3456
번호	-10.3461
▁궤도	-10.3463
ary	-10.3465
▁뛰어난	-10.3465
ri	-10.3467
▁패배	-10.3471
▁되면	-10.3475
▁베이징	-10.3477
▁감사	-10.3478
▁내려	-10.348
200	-10.3484
▁!1	-10.3486
▁방향	-10.349
▁공공	-10.349
name	-10.3494
▁위키백과에	-10.3502
▁선거구	-10.3503
조사	-10.3505
▁정원	-10.3507
▁vs	-10.3509
>·<	-10.3511
하고자	-10.3517
▁등장인물	-10.3519
▁다섯	-10.3522
단계	-10.3522
ab	-10.3523
학원	-10.3533
▁모드	-10.3538
마루	-10.3538
▁서울대학교	-10.354
▁이용해	-10.3542
▁정신	-10.3544
▁평양	-10.3549
마리	-10.355
벤	-10.355
▁이루어진	-10.3556
▁해체	-10.3559
▁이래	-10.3559
콜	-10.3562
▁손자	-10.3563
▁공장	-10.3565
▁이끄는	-10.3571
▁어떠한	-10.3575
▁관할	-10.3575
지고	-10.3575
▁린	-10.3576
▁극장판	-10.3584
ard	-10.3587
▁조선민주주의인민공화국	-10.3587
▁분야	-10.3596
▁아시안	-10.3596
라고도	-10.3596
▁원정	-10.3597
▁그것을	-10.3599
오카	-10.36
▁서술	-10.3608
▁에어	-10.361
계의	-10.3617
▁종종	-10.3626
학회	-10.363
▁고정	-10.3631
▁쌍	-10.3638
▁출생	-10.3641
500	-10.3646
중앙	-10.3649
▁MC	-10.3655
▁경우는	-10.3658
대대	-10.3658
▁Co	-10.3659
_0	-10.366
▁킹	-10.3666
our	-10.3666
▁#*	-10.3666
▁문서가	-10.3669
▁37	-10.3673
神	-10.3674
▁FM	-10.3676
▁승인	-10.368
클	-10.368
철도	-10.3686
ut	-10.3693
▁됐다	-10.3695
▁고구려	-10.3696
▁구축	-10.3696
北	-10.3697
ko	-10.3707
▁최소	-10.3709
▁극장	-10.3712
▁응	-10.3712
▁한자	-10.3713
▁공포	-10.3714
▁하면서	-10.3716
▁브	-10.3719
and	-10.372
성과	-10.3721
라도	-10.3721
▁스튜디오	-10.3731
▁07	-10.3732
대의	-10.3735
▁회원	-10.3739
ung	-10.3744
▁나이	-10.3746
▁보아	-10.3747
▁술	-10.3747
였고	-10.3748
▁콘	-10.3749
朴	-10.375
▁태어난	-10.3758
▁생물	-10.3762
ル	-10.3762
▁암살	-10.3764
▁우크라이나	-10.3766
수를	-10.3767
ell	-10.3767
▁조작	-10.3769
님의	-10.377
었으며	-10.3772
▁바다	-10.3781
▁상황에서	-10.3782
▁크기	-10.3788
▁외국	-10.3788
조직	-10.3789
▁하게	-10.3789
▁유형	-10.379
문을	-10.3791
되었지만	-10.3793
기원전	-10.3796
▁레코드	-10.3801
소리	-10.3804
▁투자	-10.3808
▁돔	-10.3812
델	-10.3813
▁해제	-10.3814
DA	-10.3825
▁프	-10.3826
▁차례	-10.3832
▁!4	-10.3832
▁이중	-10.3834
▁의료	-10.3834
▁판결	-10.3835
법을	-10.3837
교통	-10.3838
▁중학교	-10.3839
▁벨	-10.3841
서를	-10.3842
죽	-10.3842
▁제기	-10.3843
▁재판	-10.3846
▁분할	-10.3856
돼	-10.3857
칼	-10.3861
기의	-10.3869
陽	-10.387
프로	-10.3877
▁유키	-10.3879
▁맹	-10.388
▁속도	-10.3883
▁생활을	-10.3885
▁http	-10.3886
▁넘어	-10.3886
▁짧은	-10.3891
▁마음	-10.3893
▁탑	-10.3895
▁(18	-10.3896
▁유명	-10.3896
▁뜻	-10.39
▁데이비드	-10.39
▁방식	-10.3903
▁로드	-10.3904
▁왕자	-10.3906
書	-10.3908
▁앞에	-10.391
▁1956	-10.391
생활	-10.3913
승점	-10.3917
▁자체	-10.3925
▁(2018	-10.3925
top	-10.3926
洞	-10.3928
선을	-10.393
▁끝	-10.393
려고	-10.3933
▁따	-10.3936
화를	-10.3938
▁받지	-10.394
▁낙	-10.3941
▁성립	-10.3951
▁이하	-10.3952
했다는	-10.3953
▁보장	-10.3954
동에	-10.3955
환경	-10.3955
▁1954	-10.3956
=\	-10.3965
▁이정	-10.3966
학자	-10.3971
和	-10.3974
▁1955	-10.398
▁투어	-10.3981
사키	-10.3981
▁My	-10.3989
▁이재	-10.3989
전쟁	-10.399
감독	-10.3991
굴	-10.3993
▁가리키는	-10.3994
▁1958	-10.3997
대사관	-10.3997
▁블루	-10.4003
에게서	-10.4004
관계	-10.4006
▁To	-10.4012
밍	-10.4014
맥	-10.4017
▁보수	-10.4017
有	-10.4022
▁남북	-10.4022
▁결과를	-10.4028
▁사용자의	-10.4029
년대에	-10.4032
本	-10.4033
식을	-10.4033
▁했으나	-10.4035
빙	-10.4036
▁것처럼	-10.4037
▁제거	-10.4039
▁사전	-10.4041
▁대규모	-10.4044
▁보여	-10.4052
over	-10.4054
▁팀은	-10.4055
石	-10.4058
▁스토리	-10.4058
닌	-10.4059
▁확정	-10.4059
▁니시	-10.4061
▁학사	-10.4061
예술	-10.4062
▁아이돌	-10.4062
▁공산당	-10.4065
▁있었으나	-10.4066
:10	-10.4068
▁LETTER	-10.4069
▁약간	-10.407
°	-10.4071
▁전시	-10.4072
자키	-10.4074
五	-10.4076
▁그에게	-10.4077
▁1947	-10.4078
얼	-10.4081
▁외에	-10.4086
▁조치	-10.4101
▁참여하였다	-10.4102
▁타고	-10.4102
다고	-10.4109
위원장	-10.4113
했기	-10.412
い	-10.4131
▁관광	-10.4131
▁철학	-10.4132
▁시작되었다	-10.4133
▁화물	-10.4133
되	-10.4134
▁있었는데	-10.414
》()	-10.4141
▁레드	-10.4141
▁바이	-10.4141
▁추천	-10.4143
▁왕조	-10.4145
▁현실	-10.4147
▁대립	-10.4148
ant	-10.4151
▁체포	-10.4152
ma	-10.4158
스케	-10.4159
▁경고	-10.4159
▁초등학교	-10.4159
▁출력	-10.4162
▁워싱턴	-10.4165
시킨다	-10.4168
▁농구	-10.4174
▁귀족	-10.4175
▁05	-10.4177
▁도중	-10.4178
▁직업	-10.4178
▁주인	-10.4183
▁신화	-10.4185
▁법칙	-10.4187
▁권력	-10.4194
▁통계	-10.4199
▁내에	-10.4201
▁메인	-10.4202
▁발언	-10.4204
▁보조	-10.4205
▁베르	-10.4205
마이	-10.4208
주는	-10.4209
▁숙	-10.4209
다는	-10.421
軍	-10.4213
▁재정	-10.4219
phi	-10.422
▁정지	-10.4221
▁한글	-10.4223
▁인민	-10.4226
▁떨어져	-10.423
정치	-10.4232
▁취급	-10.4235
▁스타일	-10.4239
▁주제	-10.4241
▁1959	-10.4247
▁조건	-10.4251
▁벨기에	-10.4253
▁알게	-10.4254
전자	-10.4257
▁보안	-10.4259
▁없다는	-10.426
힐	-10.426
(15	-10.426
▁곳에서	-10.4261
▁소수	-10.4262
▁통해서	-10.4264
▁점에서	-10.4265
남자	-10.4267
라디오	-10.4267
之	-10.4267
不	-10.4268
.”	-10.4272
이라고도	-10.4277
폴	-10.4277
군요	-10.4281
멘	-10.4282
▁특별한	-10.4287
▁항성	-10.4292
▁제외	-10.4292
▁붙	-10.43
red	-10.4301
▁훨씬	-10.4301
▁시간을	-10.4302
공화국	-10.4304
세이	-10.4308
▁순서	-10.431
▁대기	-10.4311
▁타이완	-10.4316
▁해당하는	-10.4316
▁과정을	-10.4317
▁가사	-10.432
▁특	-10.4322
스가	-10.4323
데이	-10.4323
▁1952	-10.4324
▁이승만	-10.4324
▁여기에	-10.4324
▁Single	-10.4325
▁줄거리	-10.4333
▁위원회	-10.4338
▁은하	-10.4339
▁때에	-10.4341
▁기반	-10.4345
▁번호	-10.4346
▁담	-10.4347
▁솔	-10.4347
▁구조를	-10.4352
▁(2004	-10.4354
▁신인	-10.4354
▁쓸	-10.4355
▁미래	-10.4363
▁핵심	-10.4364
ner	-10.4364
▁정비	-10.4369
▁해안	-10.437
▁유엔	-10.437
▁코리아	-10.4377
▁달러	-10.4379
▁합병	-10.4381
▁전설	-10.4383
▁차이가	-10.4389
으	-10.4392
▁이용한	-10.4394
▁물질	-10.4397
▁살고	-10.4404
▁결성	-10.4407
▁숲	-10.4411
▁병력	-10.4412
▁빠른	-10.4414
▁Le	-10.4418
面	-10.4424
▁지나	-10.4425
연합	-10.4429
▁예상	-10.4431
sub	-10.4431
▁충분히	-10.4432
▁민주	-10.4435
sup	-10.4438
▁빅	-10.4438
▁보였다	-10.4439
▁형태의	-10.444
▁대중	-10.4441
▁규모	-10.4441
▁형제	-10.4444
▁녹	-10.4445
▁해도	-10.4448
age	-10.4448
▁이야기를	-10.4448
▁있었으며	-10.445
▁개업	-10.4452
륜	-10.446
▁개조	-10.446
▁없을	-10.4462
▁저장	-10.4463
국민	-10.4466
▁400	-10.4468
▁매년	-10.4473
mu	-10.4473
▁겨울	-10.4477
io	-10.448
▁수출	-10.448
▁Vol	-10.4482
▁전공	-10.4484
▁마치	-10.4485
(16	-10.4496
만원	-10.4501
▁김정	-10.4503
넷	-10.4504
▁둘째	-10.4505
▁무대	-10.4507
▁단지	-10.4507
시티	-10.4509
▁자살	-10.4513
▁제어	-10.4513
仁	-10.4514
龍	-10.4518
In	-10.452
▁인근	-10.4521
}{	-10.4523
▁PC	-10.4526
▁결승전	-10.4528
▁전략	-10.4532
▁변환	-10.4535
핀	-10.454
▁특집	-10.4543
▁스코틀랜드	-10.4545
ay	-10.4547
▁위해서는	-10.4553
▁개설	-10.4554
ong	-10.456
▁Be	-10.4572
▁고전	-10.4572
▁역사상	-10.4573
▁다르다	-10.4574
문제	-10.4575
기록	-10.4576
▁격	-10.4581
▁무효	-10.4581
400	-10.4582
▁설립된	-10.4589
휘	-10.4592
▁사용하고	-10.4596
위키백과	-10.4597
▁(3	-10.46
▁취소	-10.4601
▁침공	-10.4603
▁상하이	-10.4607
學	-10.4608
▁방법을	-10.4609
멜	-10.4609
▁컵	-10.461
스와	-10.4611
ive	-10.4614
제도	-10.4614
군에	-10.4614
▁대화	-10.4615
▁원작	-10.4616
▁몽골	-10.4616
▁의식	-10.4619
▁병원	-10.4624
▁완료	-10.4626
▁비교적	-10.4626
▁발생한	-10.463
▁남쪽	-10.4631
▁서버	-10.4631
▁위치하고	-10.4633
문학	-10.4634
큐	-10.4635
▁몽	-10.4635
(2	-10.4639
▁의회	-10.4648
지로	-10.4653
▁St	-10.4654
되어야	-10.4654
-12	-10.4655
▁그것은	-10.4656
▁봅니다	-10.4676
="3"|	-10.4678
▁목소리	-10.4681
▁1953	-10.4685
▁인원	-10.4687
永	-10.4698
▁시인	-10.4698
▁창조	-10.4699
핑	-10.4699
▁부터	-10.4702
▁말이	-10.4708
相	-10.471
▁구성된	-10.4711
▁뜻을	-10.4717
▁자이언츠	-10.4721
▁미니	-10.4722
▁재직	-10.4738
하시	-10.4741
▁능력을	-10.4741
▁마법	-10.4742
▁선고	-10.4742
▁탈출	-10.4743
▁되면서	-10.4745
▁플레이오프	-10.4751
begin	-10.4751
▁음식	-10.4753
▁논란이	-10.4755
▁루이스	-10.476
▁계급	-10.476
▁임대	-10.4763
▁집안	-10.4763
▁뒤를	-10.4765
▁중화민국	-10.4773
▁단계	-10.4775
▁가스	-10.4775
▁지속	-10.4778
▁동일	-10.4779
▁w	-10.4779
▁없음	-10.4779
▁창립	-10.4782
스포츠	-10.4786
타이	-10.4786
부인	-10.4791
▁나와	-10.4792
▁사건이	-10.4794
폐	-10.48
▁원소	-10.4801
▁일원	-10.4804
▁검토	-10.4804
▁보급	-10.4805
▁정부가	-10.4805
▁따로	-10.4807
▁거주	-10.4811
시로	-10.4813
▁파견	-10.4813
▁아나운서	-10.4815
白	-10.4816
구조	-10.4817
▁게스트	-10.4819
▁그냥	-10.482
▁금융	-10.4824
▁06	-10.4825
만큼	-10.483
함에	-10.4833
▁추정	-10.4835
편성	-10.4841
go	-10.4841
니스	-10.4841
▁이주	-10.4846
▁인권	-10.4855
▁요한	-10.4856
▁곽	-10.4857
▁이탈리아의	-10.4859
▁한반도	-10.4866
작사	-10.4867
▁트리	-10.4877
▁라이	-10.4879
이었고	-10.4882
▁돌아가	-10.4885
▁등판	-10.4888
原	-10.4888
the	-10.489
▁아마	-10.4891
▁수록곡	-10.4896
동안	-10.4896
me	-10.4899
구치	-10.4901
▁정상	-10.4902
▁당시의	-10.4907
▁주석	-10.4908
▁백작	-10.4911
▁오르	-10.4914
▁(4)	-10.4918
▁한때	-10.492
▁접속	-10.492
▁운전	-10.492
바라	-10.492
▁검은	-10.4923
잠	-10.4925
▁전철	-10.4926
▁1943	-10.4926
▁세종	-10.4929
▁연재	-10.4931
▁편입	-10.4932
▁흡수	-10.4932
▁AFC	-10.4934
▁임명되었다	-10.4934
능	-10.4944
학생	-10.4944
특	-10.495
▁세웠다	-10.4951
▁가문	-10.4953
▁팀이	-10.4955
▁인기	-10.4961
▁얻어	-10.4962
に	-10.4964
▁not	-10.4968
▁마르	-10.4968
▁메모리	-10.4968
▁우수	-10.497
▁충	-10.4975
대전	-10.4976
html	-10.498
▁전력	-10.4981
▁코너	-10.4981
텔	-10.4987
ス	-10.4988
▁그에	-10.4992
▁축제	-10.4995
▁명령	-10.4996
▁계획을	-10.5002
켄	-10.5008
접	-10.5013
▁1951	-10.5013
▁파워	-10.5014
▁지금까지	-10.5017
▁묘사	-10.5018
▁테마	-10.5026
ol	-10.5027
▁기초	-10.5032
▁박정희	-10.5034
:20	-10.5034
▁지낸	-10.5035
▁서명	-10.5039
논	-10.5039
▁1957	-10.5045
▁양성	-10.5045
idae	-10.5048
▁희망	-10.5048
▁문서는	-10.5049
▁희	-10.5055
▁인기를	-10.5058
2013	-10.5061
do	-10.5064
▁표면	-10.5065
▁정복	-10.5065
사로	-10.5069
per	-10.5069
세기에	-10.5071
▁정권	-10.5074
▁도전	-10.5077
▁쓰인다	-10.5082
:15	-10.5083
▁작곡가	-10.5085
▁항공기	-10.5087
▁중부	-10.5087
시오	-10.5088
▁캐	-10.5088
기구	-10.5088
☆	-10.5089
▁근대	-10.5094
릿	-10.5096
▁공기	-10.5099
▁소유	-10.51
▁선수단	-10.5101
▁득표수	-10.5103
▁토지	-10.5106
▁미니시리즈	-10.5107
▁뭐	-10.511
▁했고	-10.5111
興	-10.5116
ance	-10.5122
행정	-10.5123
▁공동체	-10.5123
▁모스크바	-10.5123
▁문장	-10.5124
▁논문	-10.5126
▁an	-10.5132
▁부상	-10.5132
▁목사	-10.5137
▁인도네시아	-10.5137
:12	-10.5139
비트	-10.5144
정당	-10.5145
▁거대한	-10.5147
었는데	-10.5148
▁살인	-10.515
계획	-10.5151
▁카를	-10.5151
▁War	-10.5153
쥐	-10.516
전을	-10.5162
▁사건을	-10.5164
times	-10.5167
LE	-10.517
▁궁	-10.5172
--	-10.5174
▁보이	-10.5174
▁지급	-10.5176
sum	-10.5182
CD	-10.5183
▁이슬람	-10.519
▁출마	-10.5191
▁비록	-10.5193
▁동의	-10.5195
ice	-10.5196
▁방향으로	-10.5196
▁철수	-10.5197
nd	-10.5202
▁의장	-10.5203
▁방면	-10.5206
▁이란	-10.5206
林	-10.5207
▁영향	-10.5209
루타	-10.5212
▁칭	-10.5213
▁이끌고	-10.5215
小	-10.5217
▁감정	-10.5223
하신	-10.5232
▁유전자	-10.5233
렸다	-10.5234
▁수영	-10.5235
▁이것을	-10.5236
▁임의의	-10.5237
▁중재	-10.5238
왕후	-10.5239
▁태어나	-10.5241
▁고문	-10.5244
ha	-10.5244
▁오랜	-10.5246
▁뜻한다	-10.5249
▁존재하는	-10.525
▁갖춘	-10.5251
도로	-10.5251
▁단백질	-10.5251
▁맡고	-10.5251
▁History	-10.5256
▁덴	-10.5256
▁위치해	-10.5257
郡	-10.5257
君	-10.5258
▁현황	-10.5258
▁의도	-10.526
▁쉬	-10.5262
▁언	-10.5263
▁이스라엘	-10.5265
▁주교	-10.5266
▁발음	-10.5268
▁흔히	-10.5279
尹	-10.528
▁요코하마	-10.5281
縣	-10.5282
▁일본에서	-10.5284
▁쓰고	-10.5293
▁모아	-10.5293
▁개국	-10.5295
▁분포	-10.5296
世	-10.5296
▁앞으로	-10.5303
퇴	-10.5307
▁받을	-10.5308
경기에	-10.5308
▁채용	-10.5313
곳	-10.5313
▁현상	-10.5313
▁일본어	-10.5315
화된	-10.5316
▁MVP	-10.5316
▁동쪽	-10.5317
▁체제	-10.5319
▁반발	-10.5328
▁부분을	-10.5328
▁학문	-10.5331
▁정책을	-10.5337
▁올려	-10.5338
▁청주	-10.5344
▁Al	-10.5344
▁스타크래프트	-10.5346
▁가서	-10.5346
▁al	-10.5348
동음이의	-10.5349
▁NHK	-10.5351
▁촌	-10.5355
▁시대에	-10.5356
▁의심	-10.5356
▁백제	-10.5359
'(	-10.536
▁덴마크	-10.5361
▁순간	-10.5365
머리	-10.5365
▁에도	-10.5366
짐	-10.5368
EBS	-10.5369
:16	-10.537
▁가치	-10.5374
~19	-10.5386
▁작성한	-10.5392
▁히로시마	-10.5392
었던	-10.5393
▁회전	-10.5393
▁피터	-10.5396
▁찰스	-10.5412
▁사실이	-10.5412
뿐만	-10.5413
▁근거	-10.5414
▁행동을	-10.5415
▁앞에서	-10.5418
▁불법	-10.542
▁성경	-10.542
alpha	-10.5428
▁상승	-10.5434
배우	-10.5437
▁시작한	-10.5438
▁(2003	-10.544
▁반영	-10.5441
▁구성원	-10.5442
▁앞두고	-10.5442
▁망명	-10.5448
▁황금	-10.5449
▁홋카이도	-10.5449
타카	-10.5455
▁세운	-10.5456
▁역으로	-10.5458
▁진입	-10.5458
▁주간	-10.5461
▁사례	-10.5467
▁타격	-10.5468
▁1919	-10.547
▁신부	-10.5471
▁EBS	-10.5477
▁질문	-10.5482
▁여기	-10.5482
▁l	-10.5482
없는	-10.5483
▁신학	-10.5484
종합	-10.5487
▁영역	-10.549
mathfrak	-10.5492
▁48	-10.5494
▁편집을	-10.5495
▁설치되어	-10.5501
▁교환	-10.5501
공주	-10.5502
력이	-10.5502
▁타카	-10.5503
▁1938	-10.5504
▁서구	-10.5505
주년	-10.551
▁39	-10.551
="",	-10.5521
보호	-10.5522
세포	-10.5526
편집	-10.5531
▁등장한다	-10.5532
▁대장	-10.5532
▁that	-10.5537
▁입장	-10.5542
▁예수	-10.5547
▁도착	-10.5548
▁해산	-10.555
▁체계	-10.5551
건설	-10.5552
▁응용	-10.5552
▁관찰	-10.5554
▁경남	-10.5555
▁신성	-10.5555
▁1939	-10.5556
▁듣고	-10.5556
▁잭	-10.5558
▁나온다	-10.5561
▁리더	-10.5562
▁1942	-10.5562
▁근무	-10.5563
▁다수	-10.5564
비아	-10.5567
▁괴	-10.5568
▁이후에는	-10.5571
▁도시로	-10.5573
학부	-10.5574
▁요새	-10.5574
▁센	-10.5577
▁오늘날	-10.5578
▁닥터	-10.5578
▁사용되었다	-10.558
▁불러	-10.5584
na	-10.5585
낙	-10.5586
▁기반으로	-10.5589
제가	-10.5589
▁지금의	-10.5591
▁경기에	-10.5593
옹	-10.5593
▁::::	-10.5595
四	-10.5597
mathrm	-10.561
▁관료	-10.5621
▁동맹	-10.5621
ty	-10.5625
▁피해를	-10.5625
▁러시아의	-10.5626
▁자원	-10.5628
▁못하는	-10.563
2000	-10.5631
▁때부터	-10.5631
▁재위	-10.5638
▁이사장	-10.5639
에만	-10.5639
▁얻었다	-10.5644
▁JTBC	-10.5644
▁세이	-10.5646
사상	-10.5649
河	-10.5652
통신	-10.5654
▁피아노	-10.5655
▁낮	-10.5656
▁않았고	-10.566
감을	-10.5661
▁붉은	-10.5663
min	-10.5666
▁민간	-10.5667
프리	-10.5669
ina	-10.5673
▁무렵	-10.5676
▁신호	-10.5679
대표	-10.5679
▁멸망	-10.5683
▁단일	-10.5683
당시	-10.5685
と	-10.5686
▁견	-10.5686
2014	-10.5688
▁말하는	-10.5689
▁Bo	-10.569
▁소재	-10.5691
▁연구소	-10.5703
▁효과	-10.5706
▁없으며	-10.5706
▁아무	-10.5708
▁살아	-10.5708
▁조합	-10.5712
▁범주	-10.5714
▁선생	-10.5723
▁산맥	-10.5724
▁지원을	-10.5725
▁군대	-10.5725
이치	-10.5734
트라	-10.5737
제작	-10.5743
▁공식적으로	-10.5746
중국	-10.5747
▁논리	-10.5747
▁켄	-10.5747
▁블로그	-10.5747
▁보냈다	-10.5748
▁부하	-10.575
행위	-10.575
▁이종	-10.5753
▁여왕	-10.5756
▁수비	-10.5757
▁모바일	-10.576
드리	-10.576
la	-10.5761
×	-10.5764
▁절대	-10.5764
:17	-10.5769
▁중세	-10.5774
▁터미널	-10.5776
be	-10.5776
▁한정	-10.5777
▁지식	-10.5778
▁수집	-10.5784
▁개념	-10.579
▁포지션	-10.5791
▁시리아	-10.5792
사령부	-10.5792
▁la	-10.5794
▁진주	-10.5794
▁했던	-10.5794
▁요청을	-10.5795
▁않으며	-10.58
▁위협	-10.5801
ae	-10.5811
▁An	-10.5813
▁en	-10.5817
▁기록하였다	-10.5822
▁York	-10.5822
▁완전	-10.5822
▁동아일보	-10.5828
▁개입	-10.583
ED	-10.5831
▁알리	-10.5832
▁국가대표	-10.5833
부산	-10.5833
=0	-10.5833
▁방법으로	-10.5835
에선	-10.5835
▁고용	-10.5835
ler	-10.5839
리오	-10.5843
평가	-10.5844
▁(2002	-10.5845
▁얼굴	-10.585
밖에	-10.5852
전에	-10.5852
-18	-10.5855
▁이벤트	-10.5864
욕	-10.5868
시키기	-10.5877
▁모임	-10.5878
▁클래식	-10.5879
▁대표팀	-10.5879
▁상태에서	-10.5879
▁경우에	-10.5882
▁오늘	-10.5883
▁150	-10.5883
▁한신	-10.5887
▁선조	-10.5892
휴	-10.5893
화가	-10.5894
▁워	-10.5895
기획	-10.5896
▁약속	-10.5898
▁벽	-10.5898
one	-10.5898
▁김동	-10.5901
▁예산	-10.5902
▁구원	-10.5902
所	-10.5908
_2	-10.5908
▁],	-10.5909
▁포함되어	-10.5912
▁오토	-10.5915
엄	-10.5916
ru	-10.5916
▁것이며	-10.5921
▁탈락	-10.5926
300	-10.5934
▁세르비아	-10.5937
▁처음에는	-10.5937
▁상품	-10.5943
성은	-10.5947
▁재개	-10.5948
럼	-10.5952
▁세계에서	-10.5954
▁너	-10.5955
▁규칙	-10.5956
á	-10.5958
▁나오	-10.5959
▁수송	-10.5962
▁개봉	-10.5963
▁바이러스	-10.5967
실점	-10.5968
▁받게	-10.597
▁보낸	-10.5975
▁콩	-10.5981
La	-10.5981
받았다	-10.5988
잡	-10.5989
▁문제로	-10.599
▁창단	-10.5992
▁재단	-10.5999
▁북쪽	-10.6
▁지속적으로	-10.6
회차	-10.6001
,\	-10.6002
▁장식	-10.6003
▁주식회사	-10.6009
트리	-10.601
▁전쟁이	-10.601
定	-10.6013
▁힐	-10.6019
▁의견이	-10.6019
▁준다	-10.6022
나카	-10.6023
▁나치	-10.6023
▁계통	-10.6025
▁요미우리	-10.6028
▁메리	-10.6028
▁계기로	-10.603
세트	-10.6031
:3	-10.6031
하였지만	-10.6033
▁전파	-10.6035
▁모습	-10.6038
-17	-10.6038
趙	-10.604
분의	-10.6042
▁양자	-10.6043
수는	-10.6046
-8	-10.6046
▁전동차	-10.6048
blue	-10.605
_{\	-10.6052
▁남은	-10.6053
▁파크	-10.6054
▁흥	-10.6054
박물관	-10.6055
대가	-10.6056
▁(2019	-10.6056
▁국가의	-10.6057
▁단어	-10.6059
心	-10.6062
소설	-10.6064
▁영향력	-10.6065
▁전쟁을	-10.6065
▁피해자	-10.6066
라며	-10.6068
받은	-10.6069
▁포트	-10.6071
▁로봇	-10.6072
▁Ver	-10.6072
▁부분은	-10.6073
▁마지막으로	-10.6076
됩니다	-10.6077
▁권한을	-10.6078
官	-10.6079
▁먹	-10.6079
▁정수	-10.6082
루스	-10.6083
▁원자	-10.6084
찰	-10.6084
앤	-10.6085
▁투입	-10.6086
▁개관	-10.6088
▁black	-10.6092
▁청나라	-10.6094
▁플레이어	-10.6095
▁주장을	-10.6095
장은	-10.6095
필드	-10.6096
마르	-10.6096
▁않게	-10.61
하다고	-10.6106
〉,	-10.6107
▁톰	-10.6108
▁써	-10.6109
江	-10.611
▁말이다	-10.611
▁합류	-10.6115
Digital	-10.6117
▁공무원	-10.6117
▁뜻이	-10.6127
▁창설	-10.6127
▁금속	-10.6134
▁끝난	-10.6135
▁넓은	-10.6137
▁유사한	-10.6139
▁기록한	-10.6139
ja	-10.6147
▁있다면	-10.6149
이던	-10.6151
▁55	-10.6152
▁문화재	-10.6155
忠	-10.6155
▁후에는	-10.6163
국의	-10.6168
▁말씀	-10.6172
史	-10.6174
▁나왔다	-10.6175
▁기지	-10.618
▁!5	-10.6181
데스	-10.6182
검사	-10.6183
▁책임	-10.6186
윈	-10.6188
▁깊은	-10.6191
등급	-10.6191
부의	-10.6193
경찰	-10.6195
▁향해	-10.6197
▁보물	-10.62
장의	-10.6202
▁자매	-10.6203
']	-10.6203
▁범위	-10.6204
▁현지	-10.621
▁방출	-10.621
▁Go	-10.6211
역대	-10.6213
▁셀	-10.6215
▁주민	-10.6218
▁아사히	-10.6222
대신	-10.6222
▁고속도로	-10.6229
ick	-10.623
분에	-10.6231
글로벌	-10.6232
善	-10.6233
▁진압	-10.6233
▁이전의	-10.6234
▁측면	-10.6236
안전	-10.6237
대교	-10.6239
▁마무리	-10.624
▁반도	-10.6244
ear	-10.6244
▁합성	-10.6246
▁문제는	-10.6248
▁골든	-10.6251
부장	-10.6253
使	-10.6255
▁델	-10.6256
▁카이	-10.6261
▁(2001	-10.6262
라이	-10.6263
▁잡	-10.6264
▁찬	-10.6265
-7	-10.6268
▁막부	-10.6269
▁성질	-10.627
院	-10.6278
▁신체	-10.6278
▁어려운	-10.6279
▁상륙	-10.6282
서는	-10.6282
납	-10.6283
om	-10.6285
연맹	-10.6287
▁정확한	-10.6289
▁김용	-10.629
▁공부	-10.6292
기와	-10.6294
▁명이	-10.6297
▁입장을	-10.6299
▁지역은	-10.63
낸	-10.6303
▁올라	-10.6304
▁오페라	-10.6304
4%	-10.6305
▁저녁	-10.6309
▁일본인	-10.631
▁분자	-10.6312
▁특성	-10.6313
극장	-10.6313
▁발표하였다	-10.6315
률	-10.6318
da	-10.6319
▁등급	-10.632
스카	-10.6322
답	-10.6323
렛	-10.6325
시스	-10.6326
▁공을	-10.6327
▁나타내는	-10.6329
사에	-10.6329
8%	-10.6332
sh	-10.6337
치는	-10.6337
▁인천광역시	-10.634
▁사망했다	-10.6344
▁있음	-10.6345
▁유사	-10.6353
▁아카데미	-10.6358
▁팀을	-10.636
▁서쪽	-10.6361
연구원	-10.6362
:14	-10.6368
▁Man	-10.6369
▁Pro	-10.637
▁THE	-10.637
▁사라	-10.6373
린다	-10.6374
▁부르는	-10.6378
島	-10.6383
▁이르는	-10.6384
鄭	-10.6387
▁건국	-10.639
▁방해	-10.6392
▁It	-10.6396
▁베이스	-10.6396
특별출연	-10.6401
-6	-10.6404
ve	-10.6406
▁양식	-10.6406
="3"	-10.6411
BR	-10.6413
시는	-10.6416
▁향상	-10.6416
line	-10.6418
▁받는다	-10.642
);	-10.6425
▁본부	-10.6428
민족	-10.643
▁김민	-10.6431
昌	-10.6432
밤	-10.6434
▁이성	-10.6434
이라면	-10.6435
▁요소	-10.6436
▁가게	-10.6437
▁무기한	-10.6437
▁벡터	-10.6437
▁족	-10.6439
이었으며	-10.6442
▁만주	-10.6443
핵	-10.6446
(3	-10.6448
리를	-10.6449
나이	-10.6454
▁대통령이	-10.6455
▁개신교	-10.6457
▁베이	-10.6458
▁차지했다	-10.6459
용으로	-10.646
▁동원	-10.646
▁노예	-10.6462
억원	-10.6463
지사	-10.6465
▁모듈	-10.6466
▁화면	-10.6473
▁브라운	-10.6478
▁하였고	-10.6479
개를	-10.6479
지에	-10.648
▁et	-10.648
▁지형	-10.6482
▁코미디	-10.6484
-20	-10.6485
▁베를린	-10.6487
▁안에서	-10.6488
▁원인	-10.649
▁지시	-10.6491
사는	-10.6497
▁선거에서	-10.6498
▁테러	-10.65
▁발매되었다	-10.6503
▁있음을	-10.6505
▁모양	-10.6508
▁탈퇴	-10.6509
▁내가	-10.6513
▁뮤직비디오	-10.6514
▁학원	-10.6515
▁공유	-10.6516
2015	-10.6522
▁않으면	-10.6523
▁라운드	-10.6527
▁정착	-10.6529
▁점수	-10.653
▁장수	-10.6531
▁도모	-10.6532
▁상업	-10.6532
▁1914	-10.6532
하여야	-10.6537
▁말았다	-10.6543
▁폭력	-10.6543
門	-10.6543
▁일본군	-10.6543
츠키	-10.6545
▁영웅	-10.6545
ana	-10.6548
▁노동자	-10.6549
▁구속	-10.6557
▁반대로	-10.6558
▁42	-10.6558
▁크리스	-10.656
聖	-10.6562
No	-10.6564
▁측	-10.6567
▁오래된	-10.6569
▁넘는	-10.6569
▁아름다운	-10.657
▁바르	-10.6575
▁64	-10.6577
partial	-10.6578
▁사과	-10.6584
▁김구	-10.659
▁부탁드립니다	-10.6591
FA	-10.6596
▁되기	-10.6601
▁의상	-10.6601
二	-10.6602
▁수상자	-10.6603
대학원	-10.6605
째	-10.6606
▁다수의	-10.6607
시험	-10.6608
▁소비에트	-10.6609
▁기술을	-10.6613
▁카메라	-10.6617
지요	-10.662
▁했으며	-10.6621
▁변수	-10.6622
▁총선	-10.6622
▁장르	-10.6626
▁고향	-10.663
로도	-10.6631
▁유한	-10.6631
-16	-10.6632
멸	-10.6632
▁보병	-10.6632
▁作	-10.6635
▁오래	-10.6638
▁목표로	-10.6638
듯	-10.6643
라스	-10.6647
▁강의	-10.6649
▁아니고	-10.6652
▁인생	-10.6663
▁백과사전	-10.6664
▁해양	-10.6665
자들이	-10.6669
편곡	-10.667
▁이혼	-10.6671
▁되자	-10.6671
디아	-10.6672
▁원년	-10.6673
▁죄	-10.6674
▁합격	-10.6674
▁그것이	-10.6676
(17	-10.6676
韓	-10.668
협의회	-10.668
누스	-10.6683
물을	-10.6685
하므로	-10.6686
▁할아버지	-10.6688
IC	-10.6689
▁병합	-10.6689
▁캐스팅	-10.669
▁미나미	-10.669
▁단독	-10.6692
▁한국인	-10.6695
▁스테이지	-10.6696
느	-10.6697
0%	-10.6702
2009	-10.6705
pe	-10.6705
▁핀	-10.6706
▁변경되었다	-10.6706
▁발표한	-10.6707
▁태국	-10.6707
었으나	-10.671
▁데이	-10.6713
넬	-10.6714
원의	-10.6715
▁추정된다	-10.6716
▁침해	-10.6719
▁교구	-10.6723
AC	-10.6723
펠	-10.6724
▁겐	-10.6725
▁후기	-10.6725
▁해설	-10.6729
▁무슨	-10.6734
▁지대	-10.6735
▁좋지	-10.6736
룸	-10.6739
▁만한	-10.6743
(6	-10.6743
▁경기는	-10.6743
▁글자	-10.6744
▁페이	-10.6744
ium	-10.6746
▁각각의	-10.6748
▁복구	-10.6752
선거	-10.6753
▁선수가	-10.6753
량이	-10.6759
이드	-10.6761
▁출범	-10.6763
▁중인	-10.6764
▁전화	-10.6767
▁상징	-10.6767
선이	-10.6768
▁이로	-10.6768
▁가졌다	-10.6773
자들은	-10.6775
▁저자	-10.6775
▁놓고	-10.6775
▁new	-10.6776
▁귀국	-10.6777
▁대략	-10.6777
▁시조	-10.6785
▁한나라당	-10.6786
▁안정	-10.6786
▁사령관	-10.6787
▁썼다	-10.6789
▁쓰이는	-10.6791
data	-10.6794
▁팝	-10.6799
터널	-10.6802
▁성격	-10.6803
▁맡아	-10.6804
2012	-10.6808
경영	-10.681
겨	-10.6811
▁con	-10.6814
▁Music	-10.6816
▁우려	-10.6816
▁빠르게	-10.6817
beta	-10.6818
ow	-10.6826
▁현재까지	-10.6827
▁주소	-10.6833
▁간주	-10.6838
▁추측	-10.6839
잉	-10.6843
▁케이	-10.6846
▁김재	-10.6847
▁요청합니다	-10.6847
▁고딕	-10.6848
▁뉴질랜드	-10.6851
▁코파	-10.6853
ig	-10.6854
▁노르웨이	-10.6855
‘	-10.6858
▁Retrieved	-10.6859
이었으나	-10.686
바르	-10.6865
▁서양	-10.6866
▁화가	-10.6868
▁능력	-10.6871
▁신고	-10.6876
지가	-10.6876
▁들고	-10.6877
▁시카고	-10.6882
베리	-10.6883
▁리처드	-10.6885
▁놀	-10.6888
▁감염	-10.6888
▁시위	-10.689
▁노부	-10.6894
왔다	-10.6895
까지의	-10.6899
사람	-10.6903
▁마련	-10.6904
합계	-10.6911
드는	-10.6912
▁항의	-10.6913
-15	-10.6914
▁대비	-10.6916
▁위기	-10.692
▁인종	-10.6921
▁투표율	-10.6922
▁훗날	-10.6923
▁1936	-10.6927
공업	-10.6929
ip	-10.6929
▁차별	-10.693
▁다르게	-10.6931
▁초반	-10.6932
▁종류의	-10.6935
▁목표	-10.6937
▁경성	-10.694
▁값	-10.694
으로서의	-10.6941
▁상태로	-10.6942
투스	-10.6946
페이	-10.6946
▁관계가	-10.6946
괴	-10.6947
겸	-10.6947
▁두산	-10.695
▁동일본	-10.695
바이	-10.695
▁스미스	-10.6951
▁고리	-10.6951
▁사태	-10.6956
ER	-10.6957
▁보이지	-10.696
▁르	-10.6961
▁본관은	-10.6961
▁여동생	-10.6975
▁갖는	-10.6975
_\	-10.6976
▁그와	-10.6976
▁샘	-10.6979
▁히로	-10.6979
원을	-10.6979
드라	-10.6979
버그	-10.6982
스티	-10.6982
갔다	-10.6983
▁잇는	-10.6984
▁숫자	-10.6985
▁학습	-10.6987
～	-10.6988
▁유명하다	-10.6988
1)	-10.699
쌍	-10.699
dy	-10.6995
▁존재하지	-10.6999
▁펜	-10.6999
:11	-10.7
스러운	-10.7001
세에	-10.7005
▁공업	-10.7006
▁라이트	-10.701
▁주제가	-10.7013
혁명	-10.7014
▁지점	-10.7019
▁이기	-10.7019
셰	-10.702
운영	-10.7024
▁되며	-10.7024
▁기권	-10.7026
마치	-10.7027
▁주장하였다	-10.7028
▁부속	-10.7028
▁위에서	-10.703
일간	-10.703
▁고양이	-10.7032
▁갑자기	-10.7033
會	-10.7036
▁점점	-10.7041
▁기체	-10.7041
▁가격	-10.7044
▁밥	-10.7045
Al	-10.7045
▁(2000	-10.7049
▁얼	-10.705
▁이룬다	-10.705
번대	-10.7053
tic	-10.7053
▁두었다	-10.7054
-11	-10.7055
▁사토	-10.7057
▁심판	-10.707
▁척	-10.707
▁업	-10.7072
▁카라	-10.7074
▁운동을	-10.7077
군단	-10.7082
▁갔다	-10.7084
▁용어	-10.7085
▁John	-10.7086
히로	-10.7087
и	-10.7095
다리	-10.7098
▁사운드	-10.7098
▁자체가	-10.7101
▁탑재	-10.7102
▁굴	-10.7102
▁크로아티아	-10.7104
▁있어야	-10.7105
▁실수	-10.711
▁로켓	-10.7111
▁늘	-10.7113
IS	-10.7116
하였던	-10.712
도쿄	-10.7122
자료	-10.7128
▁본인	-10.7129
티스	-10.713
▁변형	-10.7131
▁개최된	-10.7132
▁For	-10.7133
都	-10.7134
음을	-10.7136
▁속한다	-10.714
▁석사	-10.7143
lin	-10.7144
▁감시	-10.715
▁나고야	-10.715
▁속의	-10.7151
이면	-10.7151
▁빛	-10.7151
▁전선	-10.7151
▁엄청난	-10.7154
▁분열	-10.7155
な	-10.7156
▁지닌	-10.7156
▁모여	-10.7156
ill	-10.7156
▁공중	-10.7157
:13	-10.7158
ley	-10.716
2016	-10.716
▁김종	-10.7162
▁면적	-10.7165
토스	-10.7168
케이	-10.7169
▁많아	-10.7169
6%	-10.7169
▁자는	-10.717
둥	-10.7175
▁비상	-10.7175
ラ	-10.7176
▁비트	-10.7176
부에	-10.7178
개국	-10.7186
▁것이라는	-10.7186
▁1937	-10.7189
둔	-10.719
▁부분에	-10.7192
▁하였으나	-10.7192
up	-10.7193
▁현장	-10.7196
조의	-10.7196
▁만들기	-10.7197
▁하늘	-10.72
롤	-10.72
▁살해	-10.7202
▁하나는	-10.7209
▁골드	-10.7212
▁재산	-10.7214
▁질병	-10.7216
▁시작으로	-10.7226
▁조절	-10.723
▁나타난다	-10.7231
▁징역	-10.7232
클럽	-10.7234
▁이들의	-10.7235
지지	-10.724
▁잡아	-10.7246
캐	-10.7246
의원	-10.7247
▁완공	-10.7251
삭제	-10.7252
svg	-10.7254
▁협상	-10.7254
De	-10.7255
▁점이	-10.7255
▁EP	-10.7256
▁표지	-10.7258
▁기도	-10.7261
▁웨스트	-10.7262
▁회수	-10.7263
▁골을	-10.7263
▁보고서	-10.7263
▁그렇다면	-10.7264
▁있으면	-10.7265
ah	-10.7265
▁주니어	-10.7266
▁상당한	-10.7266
▁일대	-10.7268
▁잭슨	-10.7268
ide	-10.7269
지게	-10.7271
▁정기	-10.7272
MA	-10.7274
か	-10.7274
▁답변	-10.7276
崔	-10.728
▁아티스트	-10.7296
▁주고	-10.7296
▁창당	-10.73
美	-10.7303
그림	-10.7303
숭	-10.7304
▁항복	-10.7306
▁1910	-10.7307
▁익	-10.731
イ	-10.7311
▁참석	-10.7313
▁원칙	-10.7313
▁지금은	-10.7314
부를	-10.7316
理	-10.7316
▁항구	-10.7317
▁있으므로	-10.7318
▁스타디움	-10.7319
스코	-10.732
政	-10.7321
府	-10.7323
▁주전	-10.7324
보이	-10.7324
方	-10.7327
▁(4	-10.7328
▁조명	-10.7328
▁개봉한	-10.7329
▁후보로	-10.7329
記	-10.7335
TS	-10.7335
▁윌	-10.7336
리가	-10.7337
信	-10.7337
▁조선의	-10.7338
젤	-10.7338
▁신앙	-10.7339
인들은	-10.7342
▁기록이	-10.7344
네스	-10.7345
▁없	-10.7347
▁구현	-10.7349
▁Ch	-10.7351
▁만들고	-10.7353
섬네일	-10.7353
▁장착	-10.7354
▁안타	-10.7356
라인	-10.7356
▁화성	-10.7358
bold	-10.7361
前	-10.7361
▁소비	-10.7363
군과	-10.7364
▁신사	-10.7365
▁날개	-10.7365
장관	-10.7367
▁틀을	-10.737
▁JR	-10.737
sch	-10.737
▁마음을	-10.7373
▁주기	-10.7378
▁Con	-10.738
처리	-10.738
▁내의	-10.738
名	-10.7382
타운	-10.7384
▁답	-10.7384
▁나누어	-10.7388
▁상위	-10.7388
^\	-10.7391
▁게다가	-10.7393
▁다소	-10.7399
性	-10.7401
▁매일	-10.7402
II	-10.7406
BC	-10.7407
AD	-10.7409
▁잇	-10.741
AA	-10.741
서비스	-10.7411
▁생명	-10.7411
▁임금	-10.7412
▁모험	-10.7412
▁부상을	-10.7413
▁사형	-10.7415
▁예측	-10.7419
밥	-10.7422
유키	-10.7423
2017	-10.7424
▁의학	-10.7425
▁(5)	-10.7425
▁이후로	-10.7429
기타	-10.7431
▁동양	-10.7434
▁사양	-10.7434
經	-10.7435
▁군대를	-10.7436
は	-10.7442
▁bar	-10.7447
▁승점	-10.7448
▁심각한	-10.7452
미디어	-10.7455
infty	-10.7455
▁번째로	-10.7456
▁일어나	-10.7456
▁지어	-10.7464
되었을	-10.7464
Feat	-10.7465
경찰서	-10.7466
▁National	-10.7467
▁유일하게	-10.747
▁그들이	-10.7475
▁교류	-10.7476
▁동작	-10.7478
▁전직	-10.748
▁일종이다	-10.7482
였으나	-10.7483
▁사용되고	-10.7484
▁전북	-10.7485
▁타자	-10.7488
번의	-10.7488
▁김상	-10.7489
▁미리	-10.749
채널	-10.7492
▁김경	-10.7495
작품	-10.7496
▁시작한다	-10.7497
포스	-10.7497
▁함대	-10.7501
▁아동	-10.7502
▁마이크로소프트	-10.7503
▁마침내	-10.7504
단의	-10.7511
▁가진다	-10.7512
▁후쿠오카	-10.7513
∼	-10.7514
▁패션	-10.7516
▁포위	-10.7518
▁긴급	-10.7518
3%	-10.7519
▁갤럭시	-10.752
▁행위를	-10.7521
▁건너	-10.7524
▁길을	-10.7527
SE	-10.7529
▁책임을	-10.7531
▁생긴	-10.7536
▁기회를	-10.7539
:25	-10.754
り	-10.7542
▁41	-10.7547
▁들어서	-10.7548
▁시사	-10.7549
▁천체	-10.7551
뢰	-10.7552
▁영화배우	-10.7556
▁삽입	-10.7557
▁부근	-10.7559
▁보유	-10.7559
▁마사	-10.756
전기	-10.756
▁유래	-10.7565
트로	-10.7565
▁자신들의	-10.7568
pa	-10.7572
아시아	-10.7574
시스템	-10.7576
EN	-10.7576
▁HD	-10.7578
과정	-10.7582
▁생존	-10.7582
":	-10.7583
="34%"	-10.7583
▁성적을	-10.7586
▁대상이	-10.7588
▁잘못된	-10.7589
대장	-10.759
▁다다	-10.7591
▁도움이	-10.7593
▁장남	-10.7593
▁사랑을	-10.7593
▁마틴	-10.7594
▁소재지	-10.7596
au	-10.7597
지의	-10.7598
▁논쟁	-10.7598
▁떠	-10.7598
▁김진	-10.7601
타니	-10.7603
▁있는지	-10.7603
▁단순히	-10.7603
ite	-10.7609
통일	-10.7613
▁김태	-10.7616
op	-10.762
▁중요	-10.7624
▁어워드	-10.7626
▁헤이	-10.7628
▁접촉	-10.7629
▁조카	-10.7629
▁평가를	-10.7629
▁프로그램을	-10.763
모델	-10.763
▁모형	-10.7632
▁수도권	-10.7635
ni	-10.7636
▁호주	-10.7637
아키	-10.764
▁불과	-10.7641
▁인접	-10.7642
▁만족	-10.7643
▁function	-10.7645
下	-10.7646
▁게이	-10.7646
▁하우스	-10.7649
▁맞아	-10.7649
▁의무	-10.7649
▁즉시	-10.765
▁못한다	-10.7654
:40	-10.7655
강전	-10.7655
▁변신	-10.7656
▁리스트	-10.7656
▁아파트	-10.7657
▁일은	-10.7657
출연	-10.7659
▁포함한다	-10.7659
발전	-10.7659
히코	-10.7659
https	-10.7664
▁해당한다	-10.7667
하루	-10.7668
▁Sa	-10.7669
▁세계의	-10.7669
=3	-10.7672
▁카페	-10.7679
▁작업을	-10.7679
▁사람들의	-10.768
▁역사적	-10.7681
▁포기	-10.7681
ster	-10.7681
ure	-10.7681
▁열렸다	-10.7683
▁전원	-10.7683
lo	-10.7686
▁집권	-10.7688
해도	-10.7692
▁속한	-10.7696
▁1935	-10.7697
張	-10.7699
방송일	-10.77
▁토너먼트	-10.7704
="9%"	-10.7705
▁눈에	-10.7706
2018	-10.7708
▁의미를	-10.7712
▁화이트	-10.7712
太	-10.7712
▁레이블	-10.7712
▁불렀다	-10.7713
▁아니면	-10.7714
▁KBO	-10.7716
▁거래	-10.7716
▁예능	-10.7717
▁편지	-10.7718
▁보입니다	-10.7719
▁기본적으로	-10.7721
▁이민	-10.7722
점이	-10.7725
▁서명을	-10.7728
▁천주교	-10.7729
▁됨	-10.7731
민주	-10.7732
따	-10.7732
▁왕국의	-10.7732
▁몰	-10.7737
▁때의	-10.7739
▁김대중	-10.7741
▁강조	-10.7741
▁홈런을	-10.7744
상태	-10.7745
▁일요일	-10.7745
세와	-10.7746
▁Do	-10.7748
▁넣어	-10.775
▁Th	-10.7753
▁일어났다	-10.7757
장군	-10.7762
▁야스	-10.7764
스턴	-10.7765
▁전면	-10.7765
인들이	-10.7768
▁잎	-10.7769
▁연료	-10.7771
ba	-10.7773
▁가로	-10.7775
▁중구	-10.7777
▁가을	-10.7779
▁전역	-10.7783
司	-10.7783
▁役	-10.7785
▁연간	-10.7786
전국	-10.7787
▁오랫동안	-10.7787
▁십	-10.779
형을	-10.7792
▁43	-10.7793
▁소스	-10.7794
맹	-10.7796
▁타임	-10.7797
FC	-10.7798
▁비난	-10.7799
낭	-10.7801
▁(1996	-10.7804
▁세상	-10.7804
art	-10.7806
비를	-10.7806
▁저작물	-10.7808
漢	-10.7809
▁혜	-10.7809
▁위치한다	-10.7813
▁태조	-10.7815
▁말에	-10.7819
▁알려졌다	-10.7822
▁대구광역시	-10.7824
▁나의	-10.7824
▁it	-10.7827
▁플랫폼	-10.7828
▁관리자가	-10.7829
디스	-10.783
:50	-10.783
▁이라크	-10.7838
▁이토	-10.7841
act	-10.7842
▁제출	-10.7844
만의	-10.7844
촉	-10.7847
▁이수	-10.7847
▁프로리그	-10.7847
어로	-10.7847
▁DJ	-10.7849
▁란	-10.7851
해진	-10.7852
▁김씨	-10.7854
▁신장	-10.7854
▁카르	-10.7854
▁인지	-10.7856
▁에스	-10.7858
▁루마니아	-10.7859
축구	-10.786
열차	-10.7863
▁47	-10.7863
▁유학	-10.7866
▁지침	-10.7867
▁왕비	-10.7867
▁에드워드	-10.7867
▁오스만	-10.7872
▁복원	-10.7873
혹	-10.7875
넨	-10.7877
▁광장	-10.7877
▁문제에	-10.7878
▁올렸다	-10.788
▁선생님	-10.7882
▁구글	-10.7882
▁월화드라마	-10.7887
▁유닛	-10.7887
▁했는데	-10.7888
자유	-10.7891
▁싱가포르	-10.7891
▁나카	-10.7892
▁호수	-10.7892
고속	-10.7893
ier	-10.7893
bar	-10.7896
▁아키	-10.79
▁무덤	-10.7903
▁인쇄	-10.7904
혀	-10.7906
野	-10.7906
▁병사	-10.7909
▁검찰	-10.791
▁서울시	-10.7911
▁발견된다	-10.7912
▁포항	-10.7913
松	-10.7914
코프	-10.7916
▁44	-10.7916
미터	-10.7916
▁시즌에	-10.792
▁뒷	-10.792
▁세력	-10.7923
▁얻은	-10.7924
2019	-10.7926
▁만든다	-10.7926
▁DNA	-10.7926
▁사단	-10.7929
7%	-10.7929
값	-10.7929
▁조지아	-10.793
▁세워	-10.7931
▁$	-10.7931
▁원리	-10.7933
여성	-10.7934
▁연애	-10.7934
▁시내	-10.7934
▁map	-10.794
▁행정구역	-10.7942
까지는	-10.7942
▁당선	-10.7942
▁상황을	-10.7943
▁0.1	-10.7943
▁돈을	-10.7944
Le	-10.795
토리	-10.7952
에서만	-10.7953
▁노벨	-10.7953
▁https	-10.7958
▁히가시	-10.7959
눈	-10.796
렐	-10.7961
▁장애	-10.7963
▁등재	-10.7965
▁혼인	-10.797
어서	-10.7971
▁대선	-10.7974
▁탐	-10.7977
▁세계대전	-10.7977
▁후원	-10.7978
port	-10.7978
▁me	-10.7979
▁차이	-10.798
▁시작하여	-10.7982
▁1933	-10.7985
able	-10.7987
▁함락	-10.7989
全	-10.799
▁화산	-10.7991
▁형태를	-10.7991
▁당초	-10.7992
왕의	-10.7992
▁캠퍼스	-10.7997
방식	-10.8003
▁승객	-10.8005
▁!6	-10.8007
▁습격	-10.801
▁미군	-10.801
gen	-10.801
▁1932	-10.8014
▁주택	-10.8015
▁새롭게	-10.8021
▁스키	-10.8022
▁좋아하는	-10.8023
▁얻을	-10.8029
▁(1999	-10.803
ies	-10.8037
時	-10.8046
▁실현	-10.805
▁건담	-10.8051
▁군단	-10.8052
▁복무	-10.8056
▁나타나	-10.8057
▁1918	-10.806
▁타율	-10.8061
자인	-10.8062
ish	-10.8062
▁나아가	-10.8062
▁Ro	-10.8064
역으로	-10.8064
2008	-10.8065
ata	-10.8066
앨범	-10.8068
ka	-10.807
ca	-10.8073
ology	-10.8075
▁말레이시아	-10.8076
hi	-10.8077
=30	-10.8078
▁선전	-10.8079
▁않지만	-10.808
우라	-10.8082
▁내전	-10.8083
▁뜻하는	-10.8084
▁메달	-10.8084
▁출신으로	-10.8085
녕	-10.8087
▁아무런	-10.8087
▁공산주의	-10.8088
▁이유가	-10.8093
2011	-10.8097
view	-10.8099
▁위험	-10.81
하우스	-10.81
▁일부를	-10.8101
▁당시에는	-10.8102
mo	-10.8102
▁주연으로	-10.8103
▁자리에	-10.8104
▁빌리	-10.8106
▁특정한	-10.8108
▁가지는	-10.811
▁미상	-10.811
▁고도	-10.8114
▁till	-10.8114
웰	-10.8121
▁빠져	-10.8121
▁감독이	-10.8122
▁활성화	-10.8123
국장	-10.8125
後	-10.8126
▁포인트	-10.8126
▁단편	-10.8129
브리	-10.8129
▁혐의로	-10.813
▁no	-10.8133
silver	-10.8133
스테	-10.8135
▁불가리아	-10.8136
古	-10.8139
▁불가능	-10.8139
▁페르	-10.814
▁서비스를	-10.8142
▁보았다	-10.8145
▁다음은	-10.8146
li	-10.8146
▁안동	-10.8148
▁수여	-10.8148
慶	-10.815
▁조선총독부	-10.8152
받아	-10.8153
ai	-10.8153
자원	-10.8155
▁건립	-10.8161
▁세인트	-10.8163
노선	-10.8163
널	-10.8163
▁보니	-10.8164
▁수상했다	-10.8166
all	-10.8167
▁성당	-10.8169
▁음성	-10.8172
▁배경으로	-10.8172
재단	-10.8172
▁침입	-10.8173
▁녹색	-10.8173
@	-10.8175
▁애니	-10.8175
▁사람들을	-10.8176
▁사격	-10.8176
▁무게	-10.8178
▁결	-10.8179
▁테스트	-10.8182
oc	-10.8183
by	-10.8183
▁김일성	-10.8185
▁확립	-10.8185
oo	-10.8187
1%	-10.8188
부사	-10.8189
▁라고	-10.8191
▁확산	-10.8191
▁공정	-10.8195
▁BBC	-10.8196
▁증언	-10.8196
기사	-10.8199
사카	-10.8201
여단	-10.8201
▁주관	-10.8203
관을	-10.8203
▁46	-10.8203
▁기종	-10.8204
▁do	-10.8208
영어	-10.8213
▁여러가지	-10.8213
▁탄핵	-10.8214
▁세대	-10.8215
▁나타낸다	-10.8215
개혁	-10.8216
비치	-10.822
ass	-10.822
EA	-10.8222
▁Mar	-10.8223
ap	-10.8223
▁소속으로	-10.8227
▁장교	-10.8229
▁셰	-10.8231
2010	-10.8233
▁건조	-10.8234
▁내렸다	-10.8236
▁대개	-10.8237
▁보관	-10.8239
▁샤를	-10.8241
▁발견된	-10.8243
▁이름의	-10.8243
▁집행	-10.8245
知	-10.8246
▁뜻으로	-10.8247
▁1934	-10.8248
mer	-10.825
사무소	-10.8255
▁하나인	-10.8255
樂	-10.8256
▁닛폰	-10.8259
▁것인지	-10.8262
▁민법	-10.8264
▁퀸	-10.8265
▁존스	-10.8266
▁행렬	-10.8274
▁스페인의	-10.8274
▁밝혀	-10.8275
ee	-10.8275
▁연인	-10.8276
▁are	-10.8279
▁중의	-10.8281
▁오직	-10.8285
ti	-10.8289
대사	-10.829
제로	-10.8296
read	-10.8296
▁상황이	-10.8298
▁선박	-10.8302
▁인증	-10.8303
ng	-10.8305
▁저지	-10.8314
▁활약을	-10.8315
▁폴리	-10.8317
호를	-10.8318
▁지방의	-10.832
▁120	-10.8323
▁page	-10.8326
첩	-10.8326
▁주장하는	-10.8326
▁데이터베이스	-10.8326
▁위키백과에서	-10.8327
▁선물	-10.833
▁자극	-10.833
▁받았고	-10.8331
냈다	-10.8332
▁양산	-10.8333
ot	-10.8335
▁멀리	-10.8337
등의	-10.8337
스를	-10.834
▁다중계정	-10.8341
\}	-10.8345
▁공개된	-10.8351
▁알아	-10.8351
▁작품을	-10.8353
▁꼬리	-10.8353
▁자치	-10.8354
▁전문가	-10.8358
▁활동하였다	-10.8362
洪	-10.8364
▁짐	-10.8365
unsortable	-10.8365
▁맡은	-10.8365
▁출	-10.8367
▁결승	-10.8368
우드	-10.837
▁유행	-10.8372
▁경제적	-10.8373
▁세부	-10.8375
텍	-10.8375
수록	-10.8377
▁고속	-10.8377
▁아들로	-10.8379
▁바이에른	-10.8381
지대	-10.8382
700	-10.8386
▁특급	-10.8388
▁주말	-10.8389
원이	-10.8389
MS	-10.839
▁인터뷰	-10.8392
▁러	-10.8393
▁이후에도	-10.8396
▁리드	-10.8396
Category	-10.8396
▁49	-10.8405
고속도로	-10.8406
법에	-10.8408
삭	-10.841
▁현역	-10.841
▁허가	-10.8413
▁디스크	-10.8415
었지만	-10.8415
▁배틀	-10.8418
국민학교	-10.8419
div	-10.8419
wiki	-10.842
회를	-10.8421
미야	-10.8422
▁포지션은	-10.8424
村	-10.8425
컨	-10.8428
宮	-10.8429
▁민주주의	-10.843
뿐	-10.8431
▁부친	-10.8431
렉	-10.8435
▁1924	-10.8435
권의	-10.8437
AM	-10.8437
▁클래스	-10.8437
▁댄스	-10.8437
Con	-10.8439
ci	-10.8444
▁추가로	-10.8446
ens	-10.8446
▁창원	-10.8447
이지	-10.8448
▁집에	-10.8449
市	-10.845
▁세상을	-10.8451
▁유적	-10.8451
팬	-10.8451
▁나타나는	-10.8452
’(	-10.8453
▁보스	-10.8454
▁듀	-10.8456
뒤	-10.846
ial	-10.846
▁규제	-10.846
▁1931	-10.8461
▁회피	-10.8462
▁지은	-10.8464
六	-10.8468
▁아메리칸	-10.8473
2007	-10.8474
일보	-10.8475
▁부탁	-10.8475
겠습니다	-10.8476
▁연합뉴스	-10.8476
▁질량	-10.8477
▁길이는	-10.8477
=3|	-10.848
▁수리	-10.8484
▁업체	-10.8484
▁캘리포니아	-10.8487
集	-10.8487
▁계속해서	-10.849
이상	-10.8492
▁(6)	-10.8498
▁법정	-10.8502
ll	-10.8503
원으로	-10.8504
타로	-10.8505
▁역사를	-10.8505
▁김기	-10.8506
▁배출	-10.8506
졌고	-10.8507
▁***	-10.8509
▁아빠	-10.851
▁포맷	-10.851
▁새벽	-10.8511
브라	-10.8512
되거나	-10.8513
▁죽었다	-10.8513
▁처벌	-10.8515
▁해에	-10.852
(4	-10.8523
▁이루어졌다	-10.8523
홈런	-10.8525
인간	-10.8526
9%	-10.8527
▁갈등	-10.853
▁말로	-10.8532
ach	-10.8534
▁제공한다	-10.8535
▁포함하여	-10.8535
▁주세요	-10.8538
▁TBS	-10.8538
▁아웃	-10.8538
▁크다	-10.854
▁바뀌었다	-10.8542
▁나이트	-10.8545
ence	-10.8545
SS	-10.8546
▁맨체스터	-10.8548
▁꼭	-10.855
▁트	-10.8552
▁일어나는	-10.8552
sk	-10.8553
▁left	-10.8555
▁레벨	-10.8555
▁예정이다	-10.8556
▁사퇴	-10.8557
▁크로	-10.856
者	-10.8561
愛	-10.8563
="20"|	-10.8563
▁z	-10.8563
(14	-10.8564
BA	-10.8564
▁로즈	-10.857
또는	-10.8576
자동차	-10.8576
通	-10.858
)’	-10.8583
▁견해	-10.8585
▁거듭	-10.8586
▁알려	-10.8591
▁후손	-10.8593
▁작동	-10.8595
▁적도	-10.8595
▁우리는	-10.8597
▁연구를	-10.86
▁mm	-10.8601
였지만	-10.8601
▁파티	-10.8604
▁붙여	-10.8604
▁이행	-10.8607
▁조선일보	-10.8609
US	-10.8609
600	-10.861
▁가문의	-10.8615
▁you	-10.8615
▁없게	-10.8616
중에	-10.8619
800	-10.862
러스	-10.8622
▁위상	-10.8623
▁것이라	-10.8625
▁타입	-10.8626
▁장면	-10.8628
▁바람	-10.8629
계열	-10.8633
▁정말	-10.8633
▁거두었다	-10.8634
十	-10.8634
▁환자	-10.8638
▁엘리	-10.8639
오스	-10.8639
닉	-10.8641
que	-10.8643
▁해리	-10.8643
▁오리지널	-10.8651
뇌	-10.8652
▁아테네	-10.8652
▁상실	-10.8652
“	-10.8655
花	-10.8657
▁개원	-10.8658
룬	-10.8658
하였습니다	-10.866
▁1900	-10.8662
짱	-10.8669
▁아이들	-10.8673
▁1921	-10.8679
▁항공사	-10.8681
▁한국에서	-10.8682
▁시작된	-10.8682
▁카운티	-10.8683
▁1928	-10.8685
▁동경	-10.8687
▁음악가	-10.8687
놀	-10.8687
:21	-10.8688
▁출간	-10.869
▁동화	-10.8691
▁판사	-10.8692
▁개발한	-10.8693
▁프리미어리그	-10.8694
▁일본에	-10.8694
EB	-10.8694
▁않기	-10.8695
▁그때	-10.8696
▁레알	-10.8696
▁SS	-10.8696
▁나폴레옹	-10.8696
ID	-10.8697
▁프리드리히	-10.8699
군으로	-10.87
났	-10.8701
동으로	-10.8702
ling	-10.8706
ius	-10.8709
▁저도	-10.871
▁로고	-10.871
공연	-10.8713
당한	-10.8715
▁가까이	-10.8716
▁미스	-10.8716
▁희생	-10.8717
구역	-10.8717
아파트	-10.8717
학적	-10.872
▁Sp	-10.8722
▁한화	-10.8725
▁간다	-10.8726
▁색상	-10.8729
로운	-10.8733
소를	-10.8734
스톤	-10.8734
▁발매된	-10.8734
▁전까지	-10.8735
▁종이	-10.8735
▁분해	-10.8735
▁일부는	-10.8737
cdot	-10.8737
▁요약	-10.8738
▁?)	-10.8739
▁결방	-10.8741
▁별로	-10.8743
틱	-10.8743
▁수소	-10.8746
▁사원	-10.8747
▁진보	-10.8748
▁학살	-10.8752
▁들면	-10.8753
▁사립	-10.8754
▁크로스	-10.8754
▁대부분은	-10.8756
▁위로	-10.8757
▁총재	-10.8758
▁야마	-10.8758
▁집계	-10.8759
UN	-10.8761
롬	-10.8761
▁국기	-10.8762
고시	-10.8764
tan	-10.877
ber	-10.877
▁International	-10.8774
▁본명	-10.8778
▁사용된	-10.878
▁토론토	-10.8789
▁절반	-10.8794
▁임진왜란	-10.8797
가요	-10.8797
▁왕이	-10.8798
중인	-10.8798
뇨	-10.88
전선	-10.8801
▁동구	-10.8801
▁츠	-10.8801
▁캐나다의	-10.8802
▁훈	-10.8803
▁박근혜	-10.8804
프랑스	-10.8807
▁있	-10.8808
▁감독으로	-10.8812
▁Sch	-10.8819
▁사쿠라	-10.8821
▁앙	-10.8827
▁영주	-10.8829
▁온도	-10.883
▁생각을	-10.883
120	-10.8835
▁ex	-10.8835
시민	-10.8838
포트	-10.8841
정신	-10.8841
▁의문	-10.8841
▁유치	-10.8841
▁고교	-10.8844
▁월간	-10.8844
▁연합군	-10.8844
▁쪽	-10.8845
▁자격	-10.8846
꾼	-10.8847
▁대통령의	-10.8848
▁체코	-10.8851
▁높다	-10.8851
▁국방부	-10.8853
▁(1998	-10.8857
▁조별	-10.8858
▁입고	-10.886
공학	-10.886
인조	-10.8862
▁되는데	-10.8863
앞	-10.8864
▁레오	-10.8867
▁복사	-10.8869
:1	-10.887
▁시청	-10.8871
link	-10.8872
▁손상	-10.8873
同	-10.8875
▁식품	-10.8877
▁초청	-10.8877
▁흑인	-10.8878
▁그리스도	-10.8879
▁서일본	-10.8883
ING	-10.8883
福	-10.8883
▁시의	-10.8883
▁대부분이	-10.8883
▁곤	-10.8884
▁공화국의	-10.8885
▁어깨	-10.8886
▁칠레	-10.8887
▁US	-10.8888
동맹	-10.8888
▁총장	-10.889
대구	-10.889
위키	-10.889
▁원인이	-10.8895
▁호소	-10.8896
▁가치가	-10.8896
ale	-10.8897
▁경유	-10.8899
▁김수	-10.8899
▁미국인	-10.89
▁동방	-10.8902
공간	-10.8903
▁오오	-10.8906
동물	-10.8907
▁this	-10.8908
リ	-10.8908
▁맞는	-10.8911
sin	-10.8912
코스	-10.8913
▁폐쇄	-10.8915
-9	-10.8916
▁배포	-10.8916
겔	-10.8919
▁1925	-10.892
▁높	-10.8923
힌	-10.8924
▁아래에	-10.8925
les	-10.8927
▁만다	-10.8928
▁번의	-10.8931
▁아버지는	-10.8931
▁레전드	-10.8931
:4	-10.8932
▁03.	-10.8934
bo	-10.8936
▁그러	-10.8938
▁중에는	-10.894
주간	-10.8942
od	-10.8948
독일	-10.895
▁심장	-10.8957
堂	-10.8957
▁발생하는	-10.8959
▁선정되었다	-10.8963
▁번주	-10.8965
▁1923	-10.8965
▁손을	-10.8967
▁상주	-10.8968
▁단순	-10.897
▁상대적으로	-10.8975
星	-10.8976
사고	-10.898
▁뮌헨	-10.898
▁이들을	-10.898
PS	-10.8986
▁중이다	-10.8987
▁있었기	-10.899
▁동기	-10.8991
성에	-10.8992
가족	-10.8992
▁수석	-10.8993
▁필요하다	-10.8994
▁무리	-10.8996
▁높이는	-10.8997
▁매주	-10.8997
▁법인	-10.8999
▁(1997	-10.8999
▁미치	-10.8999
▁원수	-10.9
▁토요일	-10.9001
▁중지	-10.9002
간다	-10.9004
▁제공하는	-10.9008
ya	-10.901
▁로스	-10.9011
吉	-10.9011
▁알찬	-10.9012
▁임시정부	-10.9012
랜	-10.9013
2006	-10.9019
▁long	-10.9022
▁부담	-10.9023
▁주어	-10.9027
а	-10.9029
조차	-10.9029
로드	-10.9029
▁하였으며	-10.9031
▁터널	-10.9035
▁정확히	-10.9036
랭	-10.904
:#00	-10.9041
▁크리	-10.9041
▁아베	-10.9042
▁허락	-10.9043
-01	-10.9044
▁1929	-10.9046
▁성분	-10.9047
▁전남	-10.9049
ik	-10.905
황제	-10.905
▁중계	-10.9051
▁허위	-10.9052
세요	-10.9053
ke	-10.9054
▁토마스	-10.9055
노래	-10.9057
ham	-10.9057
▁것이고	-10.9058
▁방지	-10.906
조에	-10.9062
▁매체	-10.9063
▁유튜브	-10.9065
▁미키	-10.9065
▁노리	-10.9065
▁인명	-10.9068
▁강요	-10.9073
▁세트	-10.9075
계를	-10.9075
▁활	-10.9077
▁명나라	-10.9079
▁협정	-10.908
▁인류	-10.9084
▁수준	-10.9085
▁진격	-10.9085
▁명을	-10.9085
▁75	-10.9087
ん	-10.9088
▁애플	-10.9089
▁독자	-10.9095
▁전통적인	-10.9097
▁진영	-10.9099
맑은	-10.9101
▁다운로드	-10.9104
▁부부	-10.9105
▁급행	-10.9105
▁김지	-10.9106
이었지만	-10.9107
▁코스	-10.9108
九	-10.9109
ous	-10.9111
▁관련이	-10.9114
▁제작에	-10.9114
▁코어	-10.9115
▁아랍	-10.9115
(5	-10.9118
▁성과	-10.9119
▁대우	-10.9121
han	-10.9124
▁오프닝	-10.9124
▁효과를	-10.9124
▁와서	-10.9126
▁노래를	-10.9129
▁천안	-10.9131
로프	-10.9133
▁사용하지	-10.9134
▁조건을	-10.914
▁스티븐	-10.9141
▁흰	-10.9142
듯이	-10.9143
▁이외의	-10.9143
」(	-10.9144
소녀	-10.9147
▁좋다	-10.9147
컬	-10.915
구의	-10.915
▁미국과	-10.9152
:22	-10.9152
:05	-10.9153
▁강등	-10.9153
▁mark	-10.9155
▁기둥	-10.9158
2004	-10.9159
▁헬	-10.9159
:55	-10.9165
▁초등학교이다	-10.9168
▁모양의	-10.9168
▁설득	-10.9169
첨	-10.9171
대한	-10.9173
시기	-10.9173
▁행복	-10.9174
▁못하였다	-10.9174
▁곳으로	-10.9174
▁있었다고	-10.9176
사항	-10.9177
▁세력을	-10.9177
▁주력	-10.9177
▁프레	-10.918
▁학술	-10.9182
▁1922	-10.9189
▁변화를	-10.9189
▁이로써	-10.9191
▁ChongDae	-10.9191
▁침략	-10.9194
▁적절한	-10.9196
▁아라	-10.9197
▁의혹	-10.92
낼	-10.9206
▁혈	-10.9207
▁맞서	-10.9208
▁체육	-10.921
▁로스앤젤레스	-10.921
▁북아메리카	-10.9212
협력	-10.9215
켓	-10.9217
세력	-10.9219
쇠	-10.9223
링크	-10.9224
ex	-10.9224
▁대통령은	-10.9225
▁특별히	-10.9226
木	-10.9227
▁횟수	-10.9228
▁수단	-10.9228
▁입사	-10.9229
▁방영된	-10.923
▁유형문화재	-10.9231
date	-10.9233
敎	-10.9238
하다는	-10.9238
▁We	-10.9239
▁대공	-10.924
res	-10.9241
▁트레이드	-10.9242
웨	-10.9243
し	-10.9244
▁진실	-10.9248
등을	-10.9248
▁각본	-10.9251
▁발굴	-10.9254
▁재생	-10.9254
부는	-10.9256
di	-10.9259
유럽	-10.926
▁대리	-10.926
▁깊이	-10.9261
▁벗어나	-10.9262
▁업데이트	-10.9262
▁방송사	-10.9262
▁유통	-10.9263
▁Life	-10.9263
▁의지	-10.9265
sqrt	-10.9267
▁일정한	-10.9268
▁들어갔다	-10.9268
▁1926	-10.9269
▁더블	-10.9273
▁롱	-10.9275
▁도구	-10.9277
ea	-10.9281
▁프로그램이다	-10.9281
▁채택	-10.9282
▁아스	-10.9283
:45	-10.9283
▁주문	-10.9285
▁메이지	-10.9286
르트	-10.9287
▁작품이다	-10.9289
▁남기지	-10.9289
중대	-10.9292
푼	-10.9292
▁학자	-10.9293
▁할머니	-10.9293
▁인공	-10.9293
▁스타리그	-10.9295
▁촉	-10.9297
▁스카이	-10.9299
▁이상이	-10.93
▁끌어	-10.9304
▁원형	-10.9305
孝	-10.9305
이후	-10.9305
능력	-10.9308
web	-10.9312
▁알파	-10.9312
작전	-10.9314
내용	-10.9315
▁large	-10.9315
▁첫째	-10.9319
у	-10.9321
▁태종	-10.9321
버리	-10.9323
国	-10.9323
▁방법이	-10.9328
관련	-10.9328
▁식으로	-10.9329
png	-10.933
淸	-10.9332
SP	-10.9332
▁성남	-10.9333
▁교육을	-10.9334
하니	-10.9337
려는	-10.9338
▁활동했다	-10.9339
▁활동하고	-10.9345
▁#00	-10.9346
▁분야에서	-10.9347
八	-10.9347
▁단순한	-10.9347
▁명령을	-10.9347
▁On	-10.9348
▁진학	-10.9349
털	-10.9349
▁1927	-10.9351
▁무시	-10.9351
함수	-10.9352
▁//	-10.9352
▁창작	-10.9354
▁고객	-10.9354
▁축소	-10.9354
▁아트	-10.9356
▁부모	-10.9361
하겠습니다	-10.9361
▁하여금	-10.937
:35	-10.9372
▁국방	-10.9373
▁형식으로	-10.9377
▁엔딩	-10.9379
2%	-10.938
쿄	-10.9381
▁소식을	-10.9381
별로	-10.9382
▁곳이	-10.9382
▁구별	-10.9384
▁조항	-10.9384
▁개성	-10.9384
▁Ha	-10.9387
일반	-10.9389
▁이영	-10.939
프로그램	-10.9392
▁철도역이다	-10.9397
럴	-10.9397
▁나이로	-10.9399
▁보유하고	-10.9401
▁전신	-10.9402
▁유대인	-10.9404
산면	-10.9404
▁문단	-10.9406
수상	-10.9407
▁수치	-10.9408
오는	-10.9411
권이	-10.9411
▁*#	-10.9411
▁토론이	-10.9413
마사	-10.9415
▁서적	-10.9418
が	-10.9418
▁혼합	-10.9419
▁중력	-10.9422
▁규모의	-10.9423
▁방법은	-10.9427
▁크고	-10.9427
▁사건으로	-10.9427
type	-10.9428
▁만들어졌다	-10.9428
▁당나라	-10.9431
▁출시되었다	-10.9433
▁추적	-10.9433
▁기록하며	-10.9435
나리	-10.9435
▁스즈키	-10.9438
女	-10.9438
▁중화	-10.9439
▁트위터	-10.9443
▁영구	-10.9444
▁갖는다	-10.9447
tion	-10.9449
▁올스타전	-10.945
▁제작한	-10.9452
▁별도의	-10.9454
▁퇴	-10.9454
▁커뮤니티	-10.9454
帝	-10.9456
▁Se	-10.9456
▁참전	-10.9458
▁강원	-10.946
▁나라의	-10.9461
▁뿌리	-10.9461
▁더불어민주당	-10.9461
부가	-10.9463
="1"	-10.9463
▁도요	-10.9464
▁기여를	-10.9465
▁모음	-10.9465
▁El	-10.9467
▁사마	-10.9468
▁노무현	-10.9468
chi	-10.9471
見	-10.9473
▁지역구	-10.948
.03.01	-10.9481
독립	-10.9482
▁신분	-10.9483
▁돌파	-10.9483
—	-10.9484
ind	-10.9485
▁남겼다	-10.9486
▁여인	-10.9487
▁자금	-10.949
▁만난	-10.949
▁대결	-10.9493
化	-10.9494
▁지위	-10.9495
="5"|	-10.9496
▁몸을	-10.9496
▁링	-10.9497
▁지지를	-10.9498
▁전송	-10.9498
ical	-10.9504
▁가이	-10.9505
면에	-10.9506
부터는	-10.9508
▁51	-10.9508
="50"|	-10.9509
▁소련의	-10.9511
▁받아들여	-10.9511
기준	-10.9512
파의	-10.9515
▁데에	-10.9515
▁완전한	-10.9515
▁*:	-10.9516
▁연산	-10.9517
set	-10.9519
▁방언	-10.952
▁52	-10.9521
gu	-10.9522
▁보건	-10.9522
▁액션	-10.9529
인은	-10.9529
▁value	-10.9529
▁넘	-10.9531
▁하트	-10.9531
공장	-10.9531
師	-10.9534
▁모습이	-10.9536
번째로	-10.9538
터미널	-10.9539
▁Qu	-10.9541
▁불만	-10.9541
수로	-10.9542
▁아야	-10.9543
▁시내버스	-10.9544
▁연안	-10.9549
▁취득	-10.9551
▁모토	-10.9551
선은	-10.9551
▁사제	-10.9554
9966">	-10.9556
▁사직	-10.9557
page	-10.9559
▁커버	-10.9559
족의	-10.9562
▁넘겨주기	-10.9563
▁덜	-10.9567
▁물리	-10.9568
bottom	-10.9569
▁플로	-10.957
▁사냥	-10.9571
함과	-10.9573
장치	-10.9575
략	-10.9575
▁몬	-10.9576
방법	-10.9576
저우	-10.9576
산리	-10.9577
▁운항	-10.9577
▁65	-10.9578
▁흘러	-10.9578
현대	-10.9581
▁동시	-10.9584
▁없지만	-10.9584
종의	-10.9588
▁맛	-10.959
▁수도원	-10.9591
▁위치를	-10.9591
▁중국어	-10.9593
る	-10.9594
론을	-10.9595
▁직전	-10.9595
FCC	-10.9596
어를	-10.9596
▁노출	-10.9598
▁라이벌	-10.9599
여행	-10.96
▁부장	-10.9601
▁내역	-10.9601
세로	-10.9604
노스	-10.9608
▁사망한	-10.9609
잘	-10.9609
IA	-10.9612
▁발간	-10.9613
먹	-10.9615
▁상황에	-10.9625
▁구매	-10.9628
▁600	-10.9629
▁옷	-10.9631
▁그랜드	-10.9633
lan	-10.9635
▁관하여	-10.9635
▁이사회	-10.9636
ag	-10.9637
▁부르	-10.9637
▁정무	-10.9637
春	-10.9637
▁이세	-10.9637
표를	-10.9637
무기	-10.9639
에너지	-10.964
▁1907	-10.9642
사용	-10.9642
있	-10.9643
▁대한민국에서	-10.9644
▁문재인	-10.9644
개가	-10.9644
▁예비	-10.9645
▁추기경	-10.9646
▁실천	-10.9647
▁소방	-10.9649
▁연호	-10.9649
영국	-10.9651
▁주둔	-10.9652
▁캠프	-10.9657
▁구입	-10.9658
▁근거로	-10.9661
▁편이다	-10.9663
▁체험	-10.9663
분야	-10.9665
▁쿠데타	-10.9665
▁택	-10.9666
▁심사	-10.9667
?"	-10.967
투표	-10.9671
▁재건	-10.9671
▁장난	-10.9674
▁쥐	-10.9678
英	-10.9679
▁짜	-10.968
ou	-10.9683
▁명칭은	-10.9684
▁소송	-10.9686
▁지위를	-10.9687
▁저술	-10.9688
라이트	-10.9688
▁김현	-10.9689
▁확률	-10.9695
▁통상	-10.9696
▁대해서도	-10.9697
▁2》	-10.9698
▁역임했다	-10.9699
▁혼자	-10.9703
▁후보자	-10.9705
오리	-10.971
▁양쪽	-10.9711
▁다큐멘터리	-10.9711
▁사건에	-10.9711
노리	-10.9712
▁비행기	-10.9712
▁Ph	-10.9713
티아	-10.9714
훈련	-10.9716
철학	-10.9719
▁이른바	-10.9719
▁원하는	-10.972
아리	-10.9722
▁부지	-10.9724
▁사자	-10.9724
順	-10.9726
▁Ar	-10.9726
즐	-10.9728
.--<	-10.9732
重	-10.9732
▁경북	-10.9734
비스	-10.9735
종교	-10.9735
▁국장	-10.9736
ue	-10.9738
▁주장한다	-10.9741
ran	-10.9745
▁절차	-10.9747
▁드림	-10.9748
ub	-10.9748
▁포함하고	-10.975
▁가나	-10.9751
▁여섯	-10.9751
▁먼	-10.9755
▁입학식	-10.9756
▁상속	-10.9758
▁이웃	-10.9759
▁떠났다	-10.9759
▁우리가	-10.9761
▁보여준다	-10.9761
▁차지	-10.9762
▁열대	-10.9764
다면	-10.9765
ON	-10.9767
▁하에	-10.977
회장	-10.977
식이	-10.977
▁지니고	-10.9771
▁56	-10.9772
탐	-10.9773
▁교명	-10.9775
▁렌	-10.9777
▁품	-10.9779
▁사건의	-10.9779
▁제일	-10.9781
▁동영상	-10.9783
▁누가	-10.9784
아르	-10.9785
DE	-10.9785
▁그래픽	-10.9786
▁Live	-10.9786
사전	-10.9786
▁신축	-10.9787
▁前	-10.9789
代	-10.9791
-02	-10.9792
▁음악을	-10.9794
▁법원	-10.9796
▁다음날	-10.9802
▁코난	-10.9804
특별	-10.9805
馬	-10.9806
iz	-10.9806
▁j	-10.9807
▁환승	-10.9807
▁처형	-10.981
▁좌우	-10.9811
way	-10.9814
▁나타났다	-10.9815
▁대사관	-10.9817
▁주식	-10.9817
▁핫	-10.9818
:54	-10.9818
ps	-10.9821
▁명칭을	-10.9821
월호	-10.9823
▁규슈	-10.9824
▁벌어진	-10.9833
カ	-10.9835
▁개인의	-10.9836
보험	-10.9838
▁진단	-10.9842
▁참여한	-10.9842
▁엠	-10.9844
법인	-10.9844
쿠스	-10.9844
▁조상	-10.9845
▁바르셀로나	-10.9849
▁설치된	-10.9849
작가	-10.9849
니시	-10.986
▁오다	-10.9862
▁방식을	-10.9863
▁사법	-10.9864
▁(1995	-10.9866
▁적극적으로	-10.9868
▁총의	-10.9871
▁해상	-10.9872
▁토론에	-10.9874
▁아우	-10.9874
천군	-10.9876
사인	-10.988
▁아래와	-10.988
금융	-10.9884
▁선수들	-10.9884
▁산하	-10.9885
▁깨	-10.9886
▁사용했다	-10.9886
▁바꿔	-10.9888
리나	-10.9888
▁시스템을	-10.9891
を	-10.9891
ho	-10.9894
:24	-10.9895
킬	-10.9896
▁link	-10.9896
하라는	-10.9897
다른	-10.99
])	-10.9901
▁재학	-10.9906
▁라는	-10.9909
렘	-10.9909
군사	-10.9911
▁전술	-10.9913
▁마쓰	-10.9915
▁자녀	-10.9916
▁주최	-10.9916
▁곡을	-10.9919
여객	-10.992
log	-10.992
▁참가자	-10.992
캠퍼스	-10.992
▁발견되었다	-10.9921
▁여신	-10.9927
▁배구	-10.9928
▁American	-10.9928
ME	-10.9929
▁공연을	-10.993
IN	-10.9931
▁복수	-10.9932
칙	-10.9935
▁웨일스	-10.9935
▁생각이	-10.9935
▁바꾸	-10.9945
▁Min	-10.9946
▁싶은	-10.9947
mb	-10.9948
▁탄소	-10.9951
▁사람들에게	-10.9951
▁이치	-10.9952
▁1912	-10.9953
▁Of	-10.9954
▁피부	-10.9955
▁OS	-10.9965
〉(	-10.9965
▁주재	-10.9967
tra	-10.9968
▁1917	-10.9975
▁존슨	-10.9979
크로	-10.9979
▁신규	-10.9985
한다면	-10.9988
여자고등학교	-10.9992
▁사업을	-10.9992
:59	-10.9996
▁일기	-10.9997
정의	-10.9999
바시	-10.9999
파일	-11
켈	-11
으니	-11.0001
▁기기	-11.0001
ph	-11.0003
▁키스	-11.0003
▁달라	-11.0007
▁예방	-11.0008
▁관심	-11.001
▁여부	-11.0014
▁개명	-11.0014
첫	-11.0015
街道	-11.0016
▁선출되었다	-11.0016
.<	-11.0018
▁독특한	-11.0019
▁수료	-11.002
교육청	-11.0021
▁도쿄도	-11.0021
▁image	-11.0021
▁바둑	-11.0022
`	-11.0022
ア	-11.0025
▁법적	-11.0025
▁이르렀다	-11.0026
:23	-11.0028
▁III	-11.0029
출장	-11.0031
▁경로	-11.0033
바람	-11.0038
:28	-11.0038
▁농민	-11.0039
방향	-11.004
▁예시	-11.0041
▁친구들	-11.0043
기능	-11.0044
▁유럽의	-11.0046
:26	-11.0046
▁연결하는	-11.0046
안타	-11.0047
▁창간	-11.0049
▁기록은	-11.0049
주의자	-11.005
가수	-11.005
▁열차가	-11.0051
야구	-11.0051
▁페르시아	-11.0052
▁브라	-11.0053
▁일으켜	-11.0055
nu	-11.0059
▁신칸센	-11.006
▁소화	-11.0061
파크	-11.0062
▁분노	-11.0062
▁갖추고	-11.0063
되었습니다	-11.0063
▁이승	-11.0064
▁사임	-11.0065
▁청와대	-11.0065
부분	-11.0065
▁없기	-11.0065
▁합동	-11.0067
=40	-11.0069
ich	-11.0071
▁오류	-11.0072
▁적어도	-11.0073
宋	-11.0078
▁원장	-11.0078
해졌다	-11.0078
아라	-11.0079
:27	-11.008
▁대체로	-11.008
▁이름이다	-11.0082
▁강도	-11.0083
▁프로그래밍	-11.0084
구를	-11.0087
▁납치	-11.0088
立	-11.0088
▁성을	-11.0088
▁기소	-11.0088
으면서	-11.0089
▁베이스볼	-11.0089
▁고급	-11.009
ino	-11.0091
▁All	-11.0092
▁달려	-11.0094
▁소멸	-11.0094
▁수술	-11.0096
▁대표하는	-11.0097
▁야당	-11.0097
▁can	-11.0098
▁않음	-11.0099
정도	-11.01
카르	-11.0101
ep	-11.0101
▁소위	-11.0103
▁빨리	-11.0103
----------------	-11.0106
▁털	-11.0109
▁Op	-11.0111
▁이원	-11.0111
▁페스티벌	-11.0112
▁도호쿠	-11.0112
▁참여했다	-11.0112
ii	-11.0113
분당선	-11.0115
ning	-11.0115
▁쿠바	-11.0116
▁서브	-11.0117
▁근처에	-11.0118
▁안양	-11.0118
▁전투기	-11.0121
▁위대한	-11.0122
므로	-11.0123
▁시점	-11.0125
▁배정	-11.0126
▁사진을	-11.0127
위의	-11.0128
▁숨	-11.0129
▁사기	-11.0131
朝	-11.0132
▁축구단	-11.0133
ト	-11.0135
▁하와이	-11.0136
▁작품으로	-11.0137
:29	-11.0138
우체국	-11.0142
▁죽음을	-11.0143
▁아카	-11.0144
lu	-11.0145
▁다이묘	-11.0145
▁강릉	-11.0145
-\	-11.0146
▁개방	-11.0152
▁박정	-11.0152
석을	-11.0156
▁생일	-11.0158
▁Vi	-11.0158
Mar	-11.0159
▁아나	-11.0159
▁SM	-11.016
▁소환	-11.0162
분교	-11.0164
合	-11.0165
당했다	-11.0165
▁홍보대사	-11.0167
▁갤러리	-11.0167
權	-11.0168
▁이탈	-11.0171
▁Lo	-11.0172
▁방정식	-11.0176
요청	-11.0177
▁엘리자베스	-11.0179
▁개별	-11.018
올림픽	-11.018
▁54	-11.018
▁순환	-11.0181
▁연락	-11.0183
▁도쿠가와	-11.0184
TA	-11.0184
▁작품은	-11.0184
sp	-11.0189
▁시상식	-11.0189
엠	-11.0191
▁롤	-11.0191
▁권력을	-11.0192
cos	-11.0194
▁편찬	-11.0194
▁도달	-11.0198
▁모르	-11.0198
▁반대하는	-11.0199
▁장악	-11.02
con	-11.0207
▁입증	-11.021
▁내용의	-11.021
▁구체적으로	-11.0211
▁공통	-11.0212
▁연습	-11.0213
니까	-11.0213
이라며	-11.0214
▁기능이	-11.0215
鎭	-11.0215
▁다루는	-11.0215
▁출연작	-11.0216
=200|	-11.0216
▁플라	-11.0217
타임	-11.0218
▁입자	-11.0218
▁오빠	-11.0218
:58	-11.0219
▁언덕	-11.022
▁졸업생	-11.022
▁에이스	-11.0221
▁지켜	-11.0223
에서부터	-11.0223
▁아버지의	-11.0227
▁대학교에서	-11.0229
▁료	-11.023
▁고지	-11.023
▁고유	-11.0231
▁이후의	-11.0232
▁이명박	-11.0233
▁800	-11.0234
속도	-11.0234
것이	-11.0235
업체	-11.0236
▁프랑스어	-11.0236
▁재배	-11.0237
▁동아시아	-11.0237
ES	-11.024
마쓰	-11.0241
▁페리	-11.0243
현의	-11.0243
佛	-11.0244
사기	-11.0244
▁융	-11.0244
▁복합	-11.0245
원은	-11.0246
OS	-11.0246
▁Journal	-11.0247
▁아리	-11.0247
▁관심이	-11.0249
▁박영	-11.025
▁대한제국	-11.0257
▁180	-11.0257
禮	-11.0258
▁탁	-11.0258
▁Is	-11.0259
▁부동산	-11.026
▁놓	-11.0264
nt	-11.0266
▁올리	-11.0268
곡리	-11.0268
▁유기	-11.027
하였다고	-11.0271
▁드럼	-11.0272
▁투구	-11.0273
▁비판을	-11.0275
되게	-11.0276
들어	-11.0276
셋	-11.0279
sa	-11.0279
▁진짜	-11.0283
▁앨런	-11.0283
▁입법	-11.0283
ver	-11.0285
▁연계	-11.0287
▁des	-11.0287
▁의미가	-11.029
▁크리스마스	-11.029
е	-11.0293
▁동안에	-11.0294
▁당해	-11.0294
▁이르러	-11.0295
▁리듬	-11.0295
▁사무소	-11.0297
if	-11.0297
구에	-11.0298
▁나뉜다	-11.0298
코드	-11.03
內	-11.03
관인생략	-11.0301
▁항해	-11.0301
▁충족	-11.0301
▁개수	-11.0303
der	-11.0304
단지	-11.0305
柳	-11.0305
▁올린	-11.0308
조정	-11.0309
▁그러므로	-11.0313
▁김병	-11.0313
MHz	-11.0315
▁파이	-11.0319
▁세리에	-11.032
▁lat	-11.0322
▁복지	-11.0323
▁묵	-11.0323
▁마스터	-11.0327
뜨	-11.0328
▁Ho	-11.0328
▁얘기	-11.0329
▁내셔널	-11.0329
▁Na	-11.033
▁영화제	-11.0332
▁일부가	-11.0333
▁파악	-11.0334
▁물을	-11.0338
ま	-11.0339
▁클로	-11.0339
▁밑	-11.034
▁우정	-11.0342
▁토머스	-11.0342
▁보충	-11.0343
▁250	-11.0343
하시는	-11.0344
▁관할한다	-11.035
자에게	-11.0352
▁히로시	-11.0353
:09	-11.0353
▁그라	-11.0356
▁막기	-11.0357
▁충분한	-11.0361
▁rev	-11.0361
▁보한다	-11.0364
▁One	-11.0365
▁골키퍼	-11.0366
▁왕의	-11.0367
활	-11.0367
▁인물로	-11.0368
전대	-11.037
▁보스턴	-11.0371
▁착	-11.0371
대수	-11.0371
맛	-11.0373
レ	-11.0373
▁도서	-11.0374
:06	-11.0375
▁압	-11.0375
▁중반	-11.0376
▁컨	-11.0377
▁Time	-11.038
▁승려	-11.0381
:33	-11.0383
▁진행되었다	-11.0383
▁유산	-11.0384
묵	-11.0388
▁몬스터	-11.0389
▁사랑의	-11.039
빅	-11.0398
▁통화	-11.0398
즘	-11.0399
▁승차	-11.0401
2020	-11.0402
▁경향이	-11.0403
▁크루	-11.0405
▁결의	-11.0407
▁운영하는	-11.0407
▁추방	-11.0408
▁얼마나	-11.0411
▁일치	-11.0412
▁di	-11.0413
▁1905	-11.0413
▁맺	-11.0414
Ch	-11.0414
▁때문	-11.0416
통합	-11.0417
장에	-11.0418
▁복잡한	-11.042
▁이념	-11.042
▁관계로	-11.042
ud	-11.042
출처	-11.0421
차전에서	-11.0422
ft	-11.0422
▁본다	-11.0423
▁모르는	-11.0424
▁게임을	-11.0424
ref	-11.0426
닐	-11.0426
▁임무	-11.0429
▁자라	-11.043
정리	-11.043
tor	-11.0431
/2	-11.0434
▁이건	-11.0435
하지는	-11.0436
ek	-11.0438
▁등장한	-11.0439
▁사촌	-11.044
번째기사	-11.0442
▁고베	-11.0443
얀	-11.0444
▁업로드	-11.0445
▁이용할	-11.0445
▁숭	-11.0445
▁웨이	-11.0446
▁등번호	-11.0448
PM	-11.0449
▁빅토리아	-11.0451
▁58	-11.0455
까요	-11.0456
하에	-11.0458
%9	-11.0459
▁리그에서	-11.046
uk	-11.0462
▁빌보드	-11.0463
대한민국의	-11.0464
▁지역으로	-11.0465
▁53	-11.0466
寧	-11.0468
▁궁전	-11.0469
주로	-11.0469
▁상수	-11.047
▁두번째	-11.0471
▁탑승	-11.0471
▁노선을	-11.0474
심을	-11.0475
▁전쟁의	-11.0475
▁KT	-11.0478
▁(2020	-11.0482
▁선임	-11.0483
▁침	-11.0483
:57	-11.0484
キ	-11.0486
▁거절	-11.0486
식품	-11.0486
▁국적	-11.0487
▁대령	-11.0487
▁CF	-11.0488
ä	-11.0491
이강철	-11.0491
▁Korea	-11.0491
▁빙	-11.0492
넌	-11.0493
▁이경	-11.0494
き	-11.0497
카타	-11.0497
▁PD	-11.0499
전공	-11.0499
식으로	-11.05
:56	-11.0501
Br	-11.0501
우치	-11.0501
:07	-11.0502
▁책을	-11.0505
oid	-11.0506
▁대만	-11.0508
▁군수	-11.0508
▁선포	-11.051
▁문법	-11.051
out	-11.051
▁스승	-11.0511
▁인상	-11.0516
▁역을	-11.0516
▁border	-11.0516
▁북구	-11.0516
▁화제	-11.0517
백만	-11.0517
▁개막	-11.0517
▁대회에	-11.0517
▁하더라도	-11.0518
▁감독을	-11.052
▁전쟁에서	-11.0521
▁Car	-11.0523
▁나나	-11.0523
ated	-11.0525
▁추락	-11.0526
등이	-11.0527
$	-11.0529
▁일으켰다	-11.0529
▁동해	-11.0531
▁야구장	-11.0532
▁이루는	-11.0536
』(	-11.0537
▁오는	-11.0539
劉	-11.0542
▁스프링	-11.0544
▁발휘	-11.0546
▁Ta	-11.0546
▁랩	-11.0547
▁개량	-11.0549
▁말은	-11.0549
번지	-11.0549
MC	-11.055
▁맞지	-11.055
▁환상	-11.0552
get	-11.0552
야스	-11.0553
▁언제나	-11.0554
▁알렉산더	-11.0554
▁광복	-11.0554
▁밝혀졌다	-11.0557
▁대량	-11.0557
▁돌아왔다	-11.0559
▁(1994	-11.056
+\	-11.056
▁받았으며	-11.056
▁굳이	-11.0562
성군	-11.0562
계약	-11.0563
源	-11.0564
더스	-11.0564
▁남아프리카	-11.0567
▁그리하여	-11.0569
▁착용	-11.057
▁찾기	-11.0571
▁강하게	-11.0574
▁생각하는	-11.0574
▁그녀가	-11.0574
차량	-11.0575
▁걱정	-11.0576
서원	-11.0578
빵	-11.0579
식물	-11.0579
▁이루고	-11.0579
▁마산	-11.0583
▁매장	-11.0583
▁곡은	-11.0583
▁뒤로	-11.0586
▁상당	-11.0587
外	-11.0587
iv	-11.0588
자들의	-11.0591
▁County	-11.0591
량을	-11.0591
지기	-11.0592
▁권리를	-11.0593
▁그들을	-11.0595
▁끝내	-11.0596
101	-11.0601
헤이	-11.0603
하겠다고	-11.0604
▁사람에게	-11.0605
▁비용	-11.0609
黃	-11.0609
화학	-11.061
:49	-11.061
▁CJ	-11.0611
전문	-11.0616
:37	-11.0617
▁압력	-11.0617
▁액	-11.0619
air	-11.062
▁폭탄	-11.0624
리안	-11.0625
페르	-11.0625
▁Li	-11.0626
▁유효	-11.0626
▁고민	-11.063
▁종결	-11.0631
했었다	-11.0634
앵	-11.0636
yn	-11.0636
▁(1989	-11.0636
士	-11.0637
▁수십	-11.0637
民	-11.0638
:04	-11.0639
主	-11.0639
▁원본	-11.0639
공학과	-11.064
▁차단을	-11.064
▁가슴	-11.064
리우스	-11.064
▁문명	-11.0641
▁1908	-11.0641
▁총독	-11.0642
Co	-11.0642
둘	-11.0642
▁이끌었다	-11.0645
▁센트럴	-11.065
프레	-11.065
보고	-11.0651
▁여겨	-11.0652
▁웃	-11.0655
▁vol	-11.0659
ga	-11.0659
▁숙종	-11.066
分	-11.066
▁표창	-11.0663
▁화재	-11.0668
rd	-11.0671
▁오해	-11.0672
▁주장이	-11.0674
체를	-11.0677
▁감각	-11.0678
▁태어났으며	-11.0679
하늘	-11.068
▁확인할	-11.0681
▁대한민국에서는	-11.0681
▁입은	-11.0682
▁소집	-11.0683
▁(17	-11.0684
활동을	-11.0685
▁*●	-11.0688
▁재임	-11.0692
▁추가하였습니다	-11.0693
▁악마	-11.0696
▁자국	-11.0698
▁업무를	-11.07
▁:#	-11.0701
맞	-11.0702
▁전한	-11.0703
▁초기의	-11.0704
▁늑대	-11.0706
▁대다수	-11.0707
▁조선민주주의인민공화국의	-11.0709
▁에릭	-11.071
▁텐	-11.071
▁1906	-11.0711
▁건의	-11.0712
▁김해	-11.0712
후보	-11.0716
▁Am	-11.0716
▁과거에	-11.0719
차례	-11.0719
▁이씨	-11.0723
▁파트너	-11.0724
-21	-11.0724
로마	-11.0727
▁이시	-11.0729
▁년도	-11.0733
힘	-11.0733
ica	-11.0733
녹	-11.0734
▁고려대학교	-11.0734
業	-11.0736
▁중재위원회	-11.0736
▁Su	-11.0739
브로	-11.0739
:08	-11.0747
直	-11.0753
▁Can	-11.0756
▁지우	-11.0757
ura	-11.0762
雲	-11.0764
▁청구	-11.0765
▁(7)	-11.0766
-03	-11.0768
:34	-11.0769
▁MS	-11.077
안을	-11.077
▁정조	-11.0771
▁한일	-11.0771
중심	-11.0775
▁가설	-11.0775
▁석유	-11.0775
}_	-11.0776
▁바람에	-11.0776
▁졸업하고	-11.0777
泰	-11.0779
井	-11.078
삼성	-11.0783
형의	-11.0783
▁국무총리	-11.0786
때문에	-11.0788
▁산소	-11.0789
▁생각해	-11.0789
▁오리	-11.079
200">	-11.079
▁Cor	-11.0791
form	-11.0791
만으로	-11.0794
▁조종	-11.0795
차트	-11.0795
님께서	-11.08
사진	-11.0804
EE	-11.0811
▁쓴다	-11.0811
ight	-11.0815
플레이	-11.0815
:32	-11.0816
▁투쟁	-11.0817
▁일종의	-11.0818
흔	-11.0819
ix	-11.0819
▁맞춰	-11.082
행동	-11.0821
▁가상	-11.0822
인들의	-11.0823
▁성공을	-11.0823
的	-11.0823
▁경향신문	-11.0828
EX	-11.0828
▁세이부	-11.0829
(2010	-11.0829
!!2	-11.0831
▁히데	-11.0832
교수	-11.0833
물질	-11.0833
▁프로필	-11.0835
식의	-11.0835
▁편집자	-11.0835
▁주목	-11.0836
▁걸어	-11.0836
IT	-11.0836
▁싶습니다	-11.0837
▁전쟁에	-11.0837
▁싸움	-11.0838
들로부터	-11.0838
New	-11.0838
▁연구에	-11.0838
▁집회	-11.0838
▁Po	-11.0841
▁철거	-11.0842
장에서	-11.0844
▁영혼	-11.0844
▁지불	-11.0848
▁조선인	-11.0849
110	-11.0852
CE	-11.0853
적이	-11.0855
音	-11.0857
즉	-11.0857
ET	-11.0858
▁남구	-11.0859
제는	-11.0859
▁88	-11.086
RE	-11.086
▁포함하는	-11.086
더라도	-11.0861
으로도	-11.0862
く	-11.0868
▁조치를	-11.087
동을	-11.0872
▁(1988	-11.0873
▁의미하는	-11.0876
CO	-11.0877
▁돌아온	-11.0877
였는데	-11.0877
▁부호	-11.0879
▁아니라고	-11.088
he	-11.088
▁자세한	-11.0882
하라고	-11.0882
▁방위	-11.0884
▁양도	-11.0886
▁중동	-11.0886
naver	-11.0888
▁아들인	-11.0889
▁정교회	-11.0889
우는	-11.089
▁품질	-11.089
羅	-11.0891
▁중복	-11.0895
う	-11.0897
▁고등	-11.0897
▁적을	-11.0901
aid	-11.0902
▁목포	-11.0903
▁주지	-11.0904
▁마이크	-11.0904
▁콜롬비아	-11.0905
▁매각	-11.0906
▁자신은	-11.0908
▁심지어	-11.0909
하려면	-11.0911
▁서인	-11.0913
:42	-11.0913
호는	-11.0914
▁눈물	-11.0914
상과	-11.0915
▁당사자	-11.0915
AT	-11.0916
▁장미	-11.0916
▁진술	-11.0917
▁김영삼	-11.0923
▁원자력	-11.0923
RO	-11.0924
谷	-11.0926
▁인접한	-11.0926
▁언니	-11.0928
▁쌀	-11.0929
▁때마다	-11.0929
main	-11.093
함대	-11.093
대왕	-11.0931
▁운영하고	-11.0931
찌	-11.0933
▁밝은	-11.0934
콩	-11.0935
영상	-11.0935
지리	-11.0935
▁오른	-11.0937
층에	-11.0937
▁집필	-11.0939
전투	-11.0941
▁간에	-11.0941
박사	-11.0942
▁시리즈의	-11.0943
▁재료	-11.0946
▁여객	-11.0946
▁싶어	-11.0946
▁셋	-11.0946
RI	-11.0947
졸	-11.0948
▁무용	-11.0949
▁1500	-11.0949
Ta	-11.095
で	-11.095
▁정치인이다	-11.0951
상대	-11.0953
▁사막	-11.0954
▁출전하여	-11.0954
▁포스터	-11.0956
▁normal	-11.0956
하러	-11.0957
po	-11.0958
▁층	-11.0959
▁영향으로	-11.096
▁경기가	-11.096
▁악화	-11.0961
2005	-11.0962
▁꾸	-11.0964
▁아미	-11.0967
▁고위	-11.0967
이시	-11.0968
회초에	-11.0968
▁제주도	-11.0968
根	-11.097
-13	-11.097
▁순천	-11.0972
▁추구	-11.0974
▁학위를	-11.0975
mi	-11.0975
▁적극	-11.0976
▁!8	-11.0976
▁관련하여	-11.0978
▁Per	-11.0979
▁하나가	-11.098
▁히어로즈	-11.0981
▁UN	-11.0982
▁자료를	-11.0984
▁배열	-11.0985
▁ver	-11.0985
코리아	-11.0987
▁구름	-11.0988
▁유치원	-11.0989
▁태어남	-11.0993
▁수밖에	-11.0996
▁이윤	-11.0998
ans	-11.0999
▁의석	-11.1
금을	-11.1002
▁간부	-11.1003
▁메시지	-11.1005
▁!7	-11.1005
▁재즈	-11.1006
▁승진	-11.1006
▁반달	-11.1006
▁이전에는	-11.1008
▁선로	-11.101
년만에	-11.1014
▁이날	-11.1014
▁상태를	-11.1015
▁이어지는	-11.1018
한테	-11.102
그리	-11.102
즈카	-11.102
▁능력이	-11.1022
가람	-11.1023
▁정책에	-11.1023
▁법안	-11.1023
▁개념을	-11.1025
▁자신	-11.1025
▁가끔	-11.1026
▁박상	-11.1026
쿠라	-11.1028
RA	-11.1029
▁대법원	-11.1029
▁억제	-11.103
▁비롯하여	-11.103
디자인	-11.1032
▁시계	-11.1034
▁혁신	-11.1035
▁아래의	-11.1035
▁검증	-11.1036
▁국군	-11.1039
▁Or	-11.1042
▁돌려	-11.1044
▁꼬	-11.1046
▁대표로	-11.105
▁불상	-11.105
-14	-11.1053
▁서식지	-11.1054
▁까	-11.1055
우주	-11.1055
▁공학	-11.1056
▁하기도	-11.1058
트는	-11.106
▁이들이	-11.106
요리	-11.106
den	-11.1062
▁베네치아	-11.1064
체의	-11.1064
MB	-11.1066
▁도와	-11.1066
▁프로세서	-11.1067
▁브레	-11.1067
▁판매량	-11.1068
▁밴	-11.1068
▁부서	-11.1069
▁황후	-11.1073
▁개장	-11.1073
▁테일러	-11.1074
▁트윈스	-11.1074
▁근육	-11.1075
▁사용하였다	-11.1076
▁속해	-11.1079
▁존중	-11.1079
▁임무를	-11.108
ert	-11.1082
단을	-11.1082
▁제외하고	-11.1083
▁사이드	-11.1083
▁차관	-11.1086
인과	-11.1088
▁예외	-11.1091
단위	-11.1091
▁블	-11.1093
▁나뉘어	-11.1094
▁포털	-11.1094
▁그곳에서	-11.1095
▁디젤	-11.1098
출판사	-11.1099
책임	-11.1099
▁비서	-11.1099
▁본인이	-11.1099
▁일상	-11.11
▁북미	-11.1102
▁이른다	-11.1102
▁윈도	-11.1104
▁성격을	-11.1105
▁지연	-11.1106
dd	-11.1107
랍	-11.1109
▁테니스	-11.111
▁true	-11.1113
▁정식으로	-11.1113
회전	-11.1114
출판	-11.1116
헬	-11.1118
제품	-11.1119
▁영화는	-11.1121
▁군의	-11.1123
▁다니엘	-11.1123
ara	-11.1124
광주	-11.1124
▁일곱	-11.1125
ise	-11.1126
관광	-11.1127
▁못하게	-11.1129
▁보여주는	-11.1129
집단	-11.1129
▁전두환	-11.113
▁김승	-11.1134
華	-11.1134
CCFF	-11.1134
▁전투를	-11.1135
▁바라	-11.1136
▁증상	-11.1137
▁전반	-11.1138
▁원주	-11.1139
▁남긴	-11.1139
="40"|	-11.114
▁이지	-11.114
▁수목드라마	-11.1144
ting	-11.1144
孫	-11.1145
▁필름	-11.1146
랴	-11.1147
▁교회의	-11.1147
т	-11.1147
str	-11.1151
포드	-11.1151
▁압축	-11.1154
▁기본적인	-11.1156
▁수준의	-11.1156
▁언제	-11.1158
tr	-11.1158
ys	-11.1158
▁사건은	-11.1159
▁민중	-11.1161
bi	-11.1164
▁생각하고	-11.1165
▁시에	-11.1166
리스트	-11.1167
we	-11.1169
관리자	-11.117
▁제도를	-11.117
▁기록되어	-11.117
ator	-11.117
▁계정을	-11.1171
▁인디	-11.1172
▁노인	-11.1173
▁스톤	-11.1173
▁캐시	-11.1174
▁손에	-11.1175
도르	-11.1176
▁위키미디어	-11.1176
Sotiale	-11.1176
建	-11.1176
▁잠수함	-11.1177
참고	-11.1179
▁론	-11.1179
▁Mo	-11.1179
▁보이고	-11.1179
▁지구의	-11.118
지방법원	-11.118
▁김창	-11.118
짓	-11.1182
테스	-11.1183
▁참고로	-11.1186
▁가야	-11.1187
개로	-11.1187
수도	-11.1191
▁경제학	-11.1192
▁간행	-11.1193
▁블록	-11.1195
회말에	-11.1195
ロ	-11.1195
▁반응을	-11.1196
▁대전광역시	-11.1196
인천	-11.1196
로우	-11.1197
▁전반기	-11.1197
▁가면	-11.1199
▁아예	-11.12
▁소형	-11.12
▁왕실	-11.1201
되는데	-11.1202
▁강남	-11.1202
짜	-11.1205
theta	-11.1205
▁프로이센	-11.1207
자들	-11.1207
▁또다른	-11.121
▁나타난	-11.121
="30"|	-11.121
▁포함된	-11.121
어는	-11.121
▁문서로	-11.121
▁―	-11.1211
▁삶	-11.1211
▁신뢰	-11.1211
▁악기	-11.1211
▁권고	-11.1211
▁상관	-11.1212
테르	-11.1213
▁후에도	-11.1216
EL	-11.1216
▁사이버	-11.1217
▁봇	-11.1219
▁보험	-11.1221
▁포수	-11.1223
▁종전	-11.1226
▁판타지	-11.1226
치를	-11.1226
▁정차	-11.1227
2002	-11.1227
▁브리	-11.1228
보병사단	-11.1228
▁타워	-11.1228
▁(1)	-11.1228
▁디자이너	-11.123
▁히트	-11.123
▁인조	-11.1232
▁울산광역시	-11.1235
ec	-11.1236
▁푸른	-11.1237
▁내장	-11.1238
▁본격적으로	-11.1239
권은	-11.1239
▁드러나	-11.1239
of	-11.124
周	-11.124
▁불렸다	-11.1241
인물	-11.1242
▁그레이	-11.1242
▁필드	-11.1244
▁리틀	-11.1245
ク	-11.1246
끝	-11.1247
▁다음의	-11.1248
▁갖게	-11.125
▁미야	-11.125
역을	-11.125
▁출연하였다	-11.1251
▁양의	-11.1254
▁독일어	-11.1257
대는	-11.1258
▁돌아와	-11.1258
▁주파수	-11.1259
NC	-11.1261
▁특징이다	-11.1261
▁강점기	-11.1261
비가	-11.1263
▁상태가	-11.1263
▁광주광역시	-11.1263
▁좋을	-11.1264
▁57	-11.1265
▁아직도	-11.1266
▁기부	-11.1266
▁전작	-11.1267
▁자동으로	-11.1268
2001	-11.1269
▁사찰	-11.127
▁대동	-11.1271
운수	-11.1274
▁유전	-11.1274
SA	-11.1277
▁ch	-11.128
▁토니	-11.128
▁스피드	-11.1281
▁밀려	-11.1283
貞	-11.1285
▁차남	-11.1286
▁루트비히	-11.1287
▁기회	-11.1287
아웃	-11.1292
신의	-11.1295
景	-11.1297
▁대표이사	-11.1301
▁출연하였고	-11.1303
ave	-11.1304
▁성능	-11.1306
됨에	-11.1306
▁여겨진다	-11.1307
▁Star	-11.1307
▁밀라노	-11.1309
팡	-11.1309
▁대로	-11.1309
▁무사	-11.1312
▁래	-11.1313
형이	-11.1315
TI	-11.1318
色	-11.1318
▁May	-11.1319
실록	-11.1323
▁말라	-11.1323
▁멜	-11.1326
▁파라	-11.1327
▁안나	-11.1329
IP	-11.133
▁패턴	-11.133
▁계층	-11.133
基	-11.1332
나의	-11.1335
민주당	-11.1339
▁후속	-11.134
▁금성	-11.134
주세요	-11.134
받고	-11.134
▁부상으로	-11.134
▁School	-11.134
▁힙합	-11.1342
▁오버	-11.1343
▁IT	-11.1345
▁방송을	-11.1346
▁자식	-11.1347
▁갈색	-11.1353
▁성공했다	-11.1355
▁직무	-11.1356
▁문을	-11.1356
▁춤	-11.1357
!!3	-11.1358
▁말한	-11.1358
커스	-11.1358
!》	-11.136
▁선배	-11.1363
▁최신	-11.1363
nic	-11.1363
▁점프	-11.1368
ven	-11.1369
▁겁니다	-11.1369
gi	-11.137
LA	-11.137
▁클라	-11.1372
▁조선시대	-11.1372
▁쇠	-11.1375
▁삶을	-11.1378
▁미사	-11.1379
▁가계	-11.1379
-06	-11.138
▁소니	-11.1381
▁상을	-11.1382
▁시로	-11.1382
▁셋째	-11.1384
▁걸친	-11.1384
▁락	-11.1384
시리즈	-11.1384
AN	-11.1385
주를	-11.1386
▁의정부	-11.1386
▁이어서	-11.1389
▁잡고	-11.139
졸업생	-11.1391
▁유성	-11.1392
▁판정	-11.1394
히라	-11.1398
日本	-11.1402
법률	-11.1403
dots	-11.1407
▁차지하고	-11.1407
▁독립운동	-11.1407
만한	-11.1408
▁의미로	-11.1411
주에	-11.1412
▁타이거즈	-11.1413
▁부진	-11.1414
▁없었던	-11.1414
▁일로	-11.1414
▁63	-11.1418
▁연결되어	-11.1419
▁점은	-11.142
어야	-11.1423
식은	-11.1424
▁목성	-11.1425
▁김준	-11.1425
▁춘	-11.1427
▁(1987	-11.1428
▁끌	-11.1429
▁내지	-11.1433
박쥐	-11.1434
▁보상	-11.1435
▁지휘관	-11.1435
▁브로	-11.1437
▁동서	-11.1437
이론	-11.1441
EP	-11.1444
시키	-11.1447
▁카나	-11.1447
퀴	-11.1447
н	-11.1449
재위	-11.145
▁소득	-11.1451
mid	-11.1452
▁프랭크	-11.1453
▁스트리트	-11.1454
▁흐름	-11.1456
해주세요	-11.1457
▁시모	-11.1463
▁텍사스	-11.1465
▁마시	-11.1465
▁귀환	-11.1466
▁유인	-11.1467
2003	-11.1468
▁왕조의	-11.1471
▁그려	-11.1472
조는	-11.1474
ual	-11.1474
▁발언을	-11.1475
▁News	-11.1476
▁후반기	-11.1477
분석	-11.1478
▁후퇴	-11.1481
)〉	-11.1482
▁일화	-11.1482
▁거인	-11.1482
▁구사	-11.1483
▁:::::	-11.1483
▁문서에서	-11.1484
▁출처가	-11.1488
▁마츠	-11.1488
▁아버지가	-11.1489
▁올라가	-11.149
지점	-11.1491
봇	-11.1492
▁연세대학교	-11.1493
字	-11.1494
▁한강	-11.1495
▁Di	-11.1496
▁마이크로	-11.1497
▁소요	-11.1497
선생	-11.1498
▁나쁜	-11.1501
▁부천	-11.1502
▁도시의	-11.1505
▁So	-11.1507
▁겸임	-11.1508
▁집을	-11.1509
▁라이온즈	-11.1511
▁NC	-11.1514
(2006	-11.1515
▁du	-11.1515
▁상원	-11.1516
날짜	-11.1518
▁주위	-11.1519
부로	-11.1521
▁않도록	-11.1523
hu	-11.1523
▁역사가	-11.1523
▁임신	-11.1528
했	-11.153
ile	-11.153
황후	-11.1532
▁대역	-11.1532
▁말해	-11.1533
퍼드	-11.1533
▁그렇지	-11.1538
▁개체	-11.1538
▁독립을	-11.1538
특수	-11.1539
▁1911	-11.154
(10	-11.154
▁소비자	-11.1542
▁남아메리카	-11.1543
▁조언	-11.1546
하면서도	-11.1546
딸	-11.1546
▁대칭	-11.1547
風	-11.1548
▁양국	-11.1548
▁충주	-11.1549
▁(5	-11.1549
승을	-11.1551
▁1896	-11.1552
권에	-11.1552
:0	-11.1553
▁기용	-11.1553
▁초기에	-11.1554
京	-11.1555
▁어머니는	-11.1556
▁이유를	-11.1559
▁무한	-11.1559
▁당시에	-11.1559
잎	-11.156
自	-11.156
▁않았지만	-11.1562
▁독점	-11.1562
▁열어	-11.1565
▁['	-11.1565
▁시드니	-11.1566
▁드래곤	-11.1567
▁가시	-11.1568
▁이익	-11.1571
준다	-11.1574
歌	-11.1574
▁영문	-11.1575
▁(16	-11.1575
들에서	-11.1575
▁판례	-11.1576
▁읽	-11.1577
▁빵	-11.1578
축제	-11.158
▁파트	-11.1581
▁예로	-11.1582
▁덕분에	-11.1586
니다	-11.1586
▁찍	-11.1587
▁최종적으로	-11.1587
cus	-11.1587
▁아는	-11.159
▁공용	-11.159
▁메가	-11.159
玉	-11.1591
守	-11.1592
▁순수	-11.1592
▁우리나라	-11.1594
호가	-11.1594
▁국민의	-11.1597
즈키	-11.1598
▁그동안	-11.1598
▁이병	-11.1603
▁의존	-11.1603
▁조문	-11.1605
사실	-11.1609
진흥	-11.1609
▁사도	-11.1609
▁배제	-11.161
끼	-11.161
자로서	-11.161
프트	-11.161
▁지바	-11.1611
hat	-11.1613
ss	-11.1617
주연	-11.162
형으로	-11.1622
▁곰	-11.1623
▁u	-11.1623
▁유일	-11.1624
▁분이	-11.1624
▁무효율	-11.1624
▁출현	-11.1625
▁그리스어	-11.1626
▁농촌	-11.1627
▁이외에도	-11.1627
▁사람으로	-11.1628
▁징	-11.163
▁브라이언	-11.1631
되었다고	-11.1632
▁아기	-11.1633
▁London	-11.1634
체계	-11.1636
분이	-11.1636
▁거대	-11.1636
▁스콧	-11.1638
ari	-11.1638
che	-11.1639
▁적응	-11.1641
▁출판사	-11.1641
▁랭킹	-11.1646
▁반박	-11.1648
150	-11.1649
▁이상을	-11.1649
▁말하고	-11.165
▁회담	-11.1651
PO	-11.1651
▁도중에	-11.1652
투자	-11.1653
▁누구	-11.1656
▁낸	-11.1656
념	-11.1656
▁자본	-11.1657
꼬리	-11.1657
교사	-11.1657
身	-11.1659
▁식량	-11.166
▁알고리즘	-11.1661
▁AKB	-11.1661
▁쌍둥이	-11.1661
▁하던	-11.1665
-04	-11.1667
▁태양의	-11.1667
치료	-11.1667
AS	-11.1668
었습니다	-11.1669
▁인구가	-11.1676
к	-11.1676
파리	-11.1678
▁그녀를	-11.1679
▁승무원	-11.1682
▁훈장	-11.1684
▁모집	-11.1684
수사	-11.1684
▁메탈	-11.1684
▁화석	-11.1686
▁미국은	-11.1687
불교	-11.169
아나	-11.1692
▁바깥	-11.1692
만화	-11.1693
▁도루	-11.1694
▁프라	-11.1695
▁59	-11.1695
▁젠	-11.1696
た	-11.1696
▁인터뷰에서	-11.1696
▁열리는	-11.1699
최고	-11.1699
러시아	-11.17
줘	-11.17
▁윌슨	-11.1701
wa	-11.1701
▁아사	-11.1704
-09	-11.1704
ten	-11.1704
▁빼	-11.1705
ella	-11.1706
-23	-11.1707
땅	-11.1709
▁오노	-11.171
▁기재	-11.1711
▁1904	-11.1711
탱	-11.1711
▁계곡	-11.1711
▁수상하였다	-11.1713
▁못해	-11.1713
신청	-11.1713
▁영조	-11.1714
▁본문	-11.1714
▁킬	-11.1716
▁관객	-11.1716
▁이글스	-11.1718
▁참가한	-11.1718
▁반환	-11.1719
▁좌석	-11.1719
▁커피	-11.172
▁평등	-11.1721
▁시게	-11.1721
▁된다고	-11.1722
▁안드로이드	-11.1723
▁99	-11.1724
(13	-11.1725
노동	-11.1725
▁찾는	-11.1727
▁세조	-11.1728
관으로	-11.1732
~)	-11.1732
在	-11.1732
CH	-11.1733
▁수반	-11.1733
▁구체적인	-11.1733
만명	-11.1734
▁당연히	-11.1735
▁흰색	-11.1736
▁로마의	-11.1737
▁분기점	-11.1738
▁문신	-11.1739
원제	-11.174
▁페루	-11.174
▁관여	-11.1741
-05	-11.1742
▁종족	-11.1746
▁세계적으로	-11.1747
금지	-11.1748
▁실제로는	-11.1748
▁수업	-11.1748
▁거친	-11.1749
▁IC	-11.1749
▁별도로	-11.1751
▁여론	-11.1751
▁Sh	-11.1752
▁SP	-11.1755
vi	-11.1756
리의	-11.1757
α	-11.1757
▁분산	-11.1757
▁낭	-11.1758
사이드	-11.1759
▁Bar	-11.176
▁페이스북	-11.176
TO	-11.1761
My	-11.1762
with	-11.1764
▁새누리당	-11.1766
↔	-11.177
설명문서	-11.1773
sigma	-11.1773
▁콘텐츠	-11.1773
空	-11.1775
▁주요한	-11.1778
)」	-11.1779
▁촉진	-11.1779
▁구상	-11.178
▁같	-11.178
▁출입	-11.1783
▁다크	-11.1783
▁설립되었다	-11.1784
▁커다란	-11.1784
▁포르	-11.1784
▁과장	-11.1788
▁하드	-11.1789
같이	-11.179
천리	-11.179
▁번뇌	-11.1791
플라	-11.1792
▁약물	-11.1793
▁육성	-11.1793
고려	-11.1794
메일	-11.1794
▁빠	-11.1795
▁args	-11.1796
ron	-11.1796
법은	-11.1797
▁자전거	-11.1798
▁도시이다	-11.1799
차로	-11.1801
▁Ex	-11.1802
▁선형	-11.1802
에게도	-11.1805
▁Park	-11.1805
!"	-11.1806
이야기	-11.1806
▁주체	-11.1807
통산	-11.1808
▁바위	-11.181
▁원래는	-11.1811
소속	-11.1812
▁소련군	-11.1812
▁유발	-11.1813
í	-11.1813
▁발생하였다	-11.1814
주기	-11.1815
리온	-11.1816
▁영양	-11.182
▁3000	-11.182
▁유물	-11.1821
作	-11.1822
▁서경	-11.1822
ative	-11.1823
▁한계	-11.1825
▁고백	-11.1825
▁천사	-11.1825
▁기각	-11.1827
▁정부에	-11.1828
Ro	-11.1828
▁시가	-11.1829
▁중심지	-11.183
▁상무	-11.1831
▁진행자	-11.1832
▁많았다	-11.1833
ei	-11.1834
▁거기에	-11.1835
▁감독은	-11.1837
▁정치가	-11.1838
▁Day	-11.1839
沈	-11.1839
▁회사의	-11.1842
▁철도역	-11.1843
uck	-11.1844
(2012	-11.1845
▁성명	-11.1846
하였을	-11.1846
지면서	-11.1846
▁금메달을	-11.1846
▁코르	-11.1847
▁소리를	-11.1848
▁사위	-11.1849
▁</	-11.1857
▁이적하였다	-11.186
▁입었다	-11.186
▁대지	-11.1861
▁토벌	-11.1863
▁옆에	-11.1864
▁섬의	-11.1864
char	-11.1866
콤	-11.1868
▁파이널	-11.187
▁pro	-11.1872
▁히라	-11.1873
="4"	-11.1875
▁띠	-11.1875
▁용인	-11.1876
▁주자	-11.1878
▁마쓰다이라	-11.1881
제이	-11.1885
args	-11.1885
▁곳이다	-11.1886
▁모순	-11.1887
▁이용하는	-11.1888
▁열매	-11.1889
▁위치에	-11.189
▁사무	-11.1891
▁특허	-11.1895
’,	-11.1898
산동	-11.1899
▁들여	-11.1899
智	-11.1899
▁맺었다	-11.19
마저	-11.1902
▁아서	-11.1902
▁초에	-11.1902
AP	-11.1902
▁뜨	-11.1904
치고	-11.1904
현재의	-11.1905
▁자본주의	-11.1908
스토	-11.1909
▁남쪽으로	-11.1909
▁승계	-11.191
▁거행	-11.191
▁연령	-11.191
▁곱	-11.1913
공항	-11.1914
쥬	-11.1915
킷	-11.1915
-07	-11.1918
▁집에서	-11.1919
토르	-11.1919
ki	-11.1923
▁그래프	-11.1924
申	-11.1924
국이	-11.1925
▁찾아가	-11.1926
▁꾸준히	-11.1926
John	-11.193
七	-11.1931
▁적어	-11.1931
▁남녀	-11.1932
▁아울러	-11.1933
법이	-11.1933
▁참가했다	-11.1933
ze	-11.1933
▁탐사	-11.1934
▁붙어	-11.1935
▁춘천	-11.194
하마	-11.194
▁멀티	-11.1941
▁담고	-11.1942
▁SF	-11.1942
▁아니며	-11.1944
NS	-11.1945
▁미분	-11.1945
▁호남	-11.1946
복지	-11.1947
▁태도	-11.1948
▁일련의	-11.1949
▁발전을	-11.195
AFF	-11.195
▁일일연속극	-11.1954
▁소설가	-11.1954
▁차체	-11.1955
▁배급	-11.1956
흑	-11.1956
▁!↔	-11.1958
▁쌓	-11.1958
▁모습으로	-11.1961
▁달하는	-11.1962
▁효소	-11.1963
쯔	-11.1964
▁산화	-11.1965
▁변동	-11.1965
상으로	-11.1967
구요	-11.1968
▁95	-11.1969
era	-11.1972
▁힘이	-11.1972
IM	-11.1974
▁않았	-11.1975
▁고양	-11.1975
▁요구하는	-11.1975
▁맞게	-11.1976
▁쿨	-11.1976
▁주된	-11.1979
▁빌딩	-11.1979
▁물고기	-11.1979
▁별자리	-11.1982
▁공룡	-11.1982
▁나카무라	-11.1982
차단	-11.1986
▁대처	-11.1987
▁들었다	-11.1988
▁지속적인	-11.199
ore	-11.1995
▁누나	-11.1995
월드	-11.1996
▁역전	-11.2008
기념	-11.2008
▁전해	-11.201
▁협의	-11.2011
ら	-11.2012
▁끝으로	-11.2012
(8	-11.2014
▁나폴리	-11.2015
▁딴	-11.2016
PI	-11.2016
▁등도	-11.2017
▁LA	-11.2017
틸	-11.2017
▁성종	-11.2018
나미	-11.2018
▁좋겠습니다	-11.2019
low	-11.2019
▁사우스	-11.2019
▁미션	-11.202
▁출연했다	-11.2021
▁코로나	-11.2024
윤성현	-11.2025
미술	-11.2031
겠다고	-11.2031
AR	-11.2031
▁미나	-11.2032
▁충격	-11.2032
▁심리	-11.2033
▁눈을	-11.2033
▁생태	-11.2034
▁소속의	-11.2034
▁계수	-11.2037
▁지방도	-11.2038
트랙	-11.2038
지정	-11.2038
▁사가	-11.2039
▁교리	-11.2041
프라	-11.2043
▁1895	-11.2043
▁에드	-11.2045
▁드래프트	-11.2046
▁처음에	-11.2046
▁짓	-11.2047
cdots	-11.205
ov	-11.205
▁der	-11.205
▁장애인	-11.2051
이라도	-11.2052
▁어디	-11.2054
▁불가	-11.2054
▁([	-11.2055
▁무료	-11.2059
▁인형	-11.2061
▁추가되었다	-11.2061
좋은	-11.2062
lim	-11.2062
▁세력이	-11.2063
▁was	-11.2065
체육	-11.2067
ok	-11.2067
천만	-11.2068
▁(8)	-11.2069
▁1,000	-11.2071
께서	-11.2072
뮤직	-11.2072
▁여성의	-11.2072
▁!|	-11.2072
▁발명	-11.2075
▁샌프란시스코	-11.2075
▁데이터를	-11.2076
▁베어스	-11.2076
▁대하드라마	-11.208
卷	-11.2086
▁지향	-11.2086
▁제약	-11.2087
▁헌	-11.2088
code	-11.2088
▁(1993	-11.2089
▁취지	-11.2091
뼈	-11.2091
ensis	-11.2092
▁역명	-11.2093
▁간단한	-11.2093
▁학부	-11.2093
▁안산	-11.2096
壽	-11.2097
subseteq	-11.2097
▁가쓰	-11.2098
▁최후의	-11.2098
▁리가	-11.2102
▁티베트	-11.2105
▁식당	-11.2108
▁시집	-11.2111
쯤	-11.2111
▁비자유	-11.2112
▁최대의	-11.2112
▁입단하였다	-11.2115
▁매니저	-11.2116
생산	-11.2117
▁당했다	-11.2117
▁말할	-11.2118
htm	-11.212
▁베타	-11.2121
bu	-11.2121
bullet	-11.2124
ness	-11.2124
▁Pa	-11.2126
거래	-11.2126
af	-11.2126
▁거짓	-11.2126
▁들어간	-11.2127
〜	-11.2128
典	-11.2128
▁사이토	-11.2129
효과	-11.213
동이	-11.213
▁가량	-11.2131
▁맺고	-11.2131
St	-11.2132
▁않았던	-11.2132
▁Un	-11.2134
▁협박	-11.2135
▁컬러	-11.2135
▁시간에	-11.2136
▁데뷔하였다	-11.2137
여자중학교	-11.2139
▁전체를	-11.2139
▁교향곡	-11.2139
(7	-11.214
우승	-11.2141
빠	-11.2141
SK	-11.2141
▁하루카	-11.2141
▁곧바로	-11.2144
ern	-11.2144
▁없었고	-11.2144
▁이용될	-11.2147
후지	-11.2148
▁두려워	-11.215
▁서기	-11.215
성으로	-11.215
▁지원하는	-11.215
▁총선에서	-11.215
NO	-11.2155
兵	-11.2156
▁/><	-11.2157
box	-11.216
▁직장	-11.216
관이	-11.2161
=60|	-11.2161
양념파닭	-11.2162
▁월요일	-11.2164
▁발발	-11.2164
▁이하의	-11.2167
normal	-11.2169
▁본토	-11.217
▁위키백과는	-11.2171
fa	-11.2171
▁격파	-11.2179
▁상영	-11.2182
었	-11.2183
▁심한	-11.2184
▁백인	-11.2184
▁웨	-11.2185
▁이현	-11.2185
▁Ma	-11.2185
▁결과가	-11.2189
▁신임	-11.219
▁유신	-11.2192
▁가요	-11.2196
0000	-11.2197
▁밖으로	-11.2198
▁색깔	-11.2199
▁쓰지	-11.22
▁당한	-11.2202
▁가즈	-11.2203
닥	-11.2205
▁(1990	-11.2205
▁인터페이스	-11.2207
▁본인의	-11.2208
▁본사	-11.221
▁kg	-11.221
▁영의정	-11.2211
衛	-11.2216
평화	-11.2217
▁옆	-11.2218
사에서	-11.2218
님은	-11.222
▁구리	-11.2221
▁발표되었다	-11.2221
▁분명히	-11.2222
利	-11.2222
tes	-11.2223
▁소재로	-11.2224
▁굿	-11.2225
▁무선	-11.2225
명과	-11.2227
▁명단에	-11.2227
▁인텔	-11.2227
▁레이다	-11.2229
▁72	-11.2229
▁게재	-11.223
▁평일	-11.2232
▁상호작용	-11.2233
▁힘들	-11.2234
▁1909	-11.2234
▁시나리오	-11.2235
리와	-11.2238
To	-11.2238
히토	-11.2239
(2011	-11.224
조건	-11.2241
언어	-11.2246
▁시간대	-11.2246
▁얼음	-11.2248
다르	-11.225
▁지었다	-11.2254
▁연주자	-11.2257
▁He	-11.2259
▁선거에	-11.2261
▁해협	-11.2261
▁김광	-11.2262
▁요금	-11.2262
▁결승전에서	-11.2263
▁찾을	-11.2265
1999	-11.2265
▁활동이	-11.2266
▁케이블	-11.2266
붕	-11.2268
▁설립인가	-11.2268
정원	-11.2269
-08	-11.2269
▁면에서	-11.2269
▁인터	-11.227
▁중계소	-11.2271
개인	-11.2271
▁발생했다	-11.2272
지와	-11.2274
amp	-11.2274
▁김형	-11.2274
az	-11.2275
▁있으니	-11.2276
▁독립운동가	-11.2277
▁밤에	-11.2277
▁삭	-11.2278
▁또다시	-11.2278
모음	-11.2278
▁right	-11.2279
▁66	-11.2279
▁기관차	-11.2281
▁관점	-11.2281
▁역임	-11.2282
▁명문	-11.2284
동의	-11.2285
▁해주	-11.2286
▁북쪽으로	-11.2286
▁공화당	-11.2288
냥	-11.2288
▁부족한	-11.2289
▁보이며	-11.2289
Inst	-11.229
▁밀도는	-11.229
▁110	-11.2292
▁근처	-11.2293
▁약탈	-11.2295
▁아니지만	-11.2298
이거나	-11.2299
▁부회장	-11.2299
▁so	-11.2301
오르	-11.2302
▁끊	-11.2302
GA	-11.2304
▁브라질의	-11.2305
▁소유자	-11.2307
▁라틴어	-11.2308
ts	-11.231
路	-11.231
▁가미	-11.2313
▁시드	-11.2313
▁파키스탄	-11.2315
▁미쓰	-11.2318
▁id	-11.2321
▁병역	-11.2322
▁동반	-11.2323
무역	-11.2325
▁토막글	-11.2326
▁프랑크	-11.2326
▁WWE	-11.2326
▁광역	-11.2328
▁탄압	-11.233
▁물리학	-11.233
▁김희	-11.2331
▁운송	-11.2332
}{\	-11.2332
▁수직	-11.2333
▁비슷	-11.2338
노미야	-11.2339
▁본선에	-11.2339
▁침몰	-11.2339
슈퍼	-11.2339
▁다케	-11.234
▁모델로	-11.2342
▁라이언	-11.2344
▁(1992	-11.2344
▁Up	-11.2344
▁인도의	-11.2344
▁뮤	-11.2345
▁마천루	-11.2345
▁청춘	-11.2346
▁당신	-11.2346
▁발생한다	-11.2348
▁선호	-11.2351
▁가수이다	-11.2355
▁왜곡	-11.2355
형태	-11.2358
▁실내	-11.2358
▁졸	-11.2358
씨의	-11.2361
분교장	-11.2361
▁바닥	-11.2362
였기	-11.2362
전략	-11.2363
▁첫번째	-11.2365
▁AC	-11.2366
▁사용해	-11.237
▁약칭	-11.2371
▁응답	-11.2372
▁회로	-11.2374
▁강연	-11.2377
▁팬들	-11.2377
▁뼈	-11.2379
▁글로	-11.238
▁Ra	-11.2381
수정	-11.2382
▁겨우	-11.2385
▁기법	-11.239
졸업	-11.2391
▁간섭	-11.2393
▁지붕	-11.2395
ult	-11.2396
▁타운	-11.2397
▁보지	-11.2397
ama	-11.2398
▁착공	-11.2398
학을	-11.24
▁용량	-11.2401
▁칼리지	-11.2405
강에	-11.2405
bb	-11.2405
어족	-11.2405
▁무실점	-11.2406
꾸	-11.2406
ó	-11.2408
gan	-11.2409
cho	-11.2409
900	-11.2409
시가	-11.241
LG	-11.2411
▁marksize	-11.2412
▁상태에	-11.2416
▁쪽으로	-11.2416
▁주어진	-11.2418
결정	-11.2418
미래	-11.2419
마츠	-11.2419
구로	-11.2419
▁중장	-11.2419
▁되었는데	-11.242
思	-11.2422
▁창원시	-11.2422
▁미치는	-11.2423
▁경비	-11.2425
▁꽤	-11.2426
吳	-11.2426
▁큐	-11.2426
▁기적	-11.2427
▁저작	-11.2429
▁관계는	-11.2429
▁!10	-11.243
대통령령	-11.2432
▁일으킨	-11.2434
▁야기	-11.2435
tu	-11.2436
▁마스	-11.244
wikipedia	-11.2441
씨는	-11.2441
▁(10	-11.2443
았고	-11.2444
밴드	-11.2444
▁비롯해	-11.2445
▁아키라	-11.2448
▁자치구	-11.2448
▁표기법	-11.2448
ini	-11.2448
▁먹는	-11.2452
▁700	-11.2455
▁발표된	-11.2457
▁사사	-11.2462
▁앱	-11.2463
靑	-11.2466
▁쇼군	-11.2466
어스	-11.2467
▁자유롭게	-11.2468
계에서	-11.247
▁위키백과를	-11.247
법원	-11.247
나요	-11.2471
▁탈당	-11.2472
說	-11.2472
▁캠페인	-11.2472
모어	-11.2472
대부	-11.2474
분을	-11.2476
▁장성	-11.2476
CS	-11.2476
▁무조건	-11.2479
▁아시	-11.248
▁Science	-11.248
▁명칭이	-11.2481
應	-11.2481
с	-11.2482
마스	-11.2482
▁삼성전자	-11.2483
자연	-11.2483
▁대성당	-11.2484
▁불리	-11.2486
ole	-11.2487
現	-11.2488
眞	-11.2488
▁ISO	-11.2488
량의	-11.2489
▁달성했다	-11.249
년부터는	-11.2491
▁윗	-11.2491
▁주니치	-11.2492
▁지상역이다	-11.2493
Lo	-11.2493
MI	-11.2493
담당	-11.2496
▁필요로	-11.2499
▁포켓몬	-11.25
▁●	-11.2501
▁카프	-11.2501
살이	-11.2502
기계	-11.2503
my	-11.2505
良	-11.2505
자들을	-11.2505
▁패널	-11.2509
대에	-11.2509
▁그로	-11.2509
▁음원	-11.2513
▁묶	-11.2513
▁사실은	-11.2515
천사	-11.2516
동아일보	-11.2517
▁봉사	-11.2518
▁오지	-11.2518
▁김윤	-11.2521
▁일체	-11.2522
조합	-11.2522
구가	-11.2523
▁전승	-11.2523
▁풀어	-11.2524
ris	-11.2524
ost	-11.2525
▁소규모	-11.2526
▁풋볼	-11.2527
▁수비수	-11.2529
아역	-11.2532
bit	-11.2533
제주	-11.2534
▁소통	-11.2535
▁관계에	-11.2535
▁VS	-11.2536
▁피에르	-11.2536
▁이루	-11.2536
▁회색	-11.2536
▁혼란	-11.2536
▁미술관	-11.2537
▁이력	-11.2538
▁1913	-11.2538
▁혐의	-11.254
▁베리	-11.2543
▁신용	-11.2545
투쟁	-11.2545
▁지목	-11.2548
▁곡선	-11.2549
샘	-11.255
▁후인	-11.2552
▁기동	-11.2556
다운	-11.2558
▁호세	-11.2559
An	-11.2559
기자	-11.2563
言	-11.2563
ero	-11.2563
萬	-11.2565
▁En	-11.2565
▁조국	-11.2566
밭	-11.2567
겠다	-11.2567
▁윌리엄스	-11.2568
▁×	-11.2568
▁::*	-11.2569
▁허브	-11.257
▁삼아	-11.2571
出	-11.2571
(2002	-11.2573
▁봉기	-11.2574
▁왕가	-11.2577
함이	-11.2578
物	-11.2578
▁전진	-11.2579
라노	-11.258
▁분위기	-11.2581
되었기	-11.2581
시를	-11.2581
▁드리	-11.2583
▁구간이	-11.2583
▁하차	-11.2583
▁시작했고	-11.2585
宣	-11.2589
▁유비	-11.2589
▁그녀	-11.259
▁반사	-11.2591
▁담은	-11.2592
▁영국에서	-11.2593
▁마케팅	-11.2595
og	-11.2595
▁없어서	-11.2597
공격	-11.2597
▁최근에는	-11.2598
ā	-11.26
▁중에서도	-11.26
▁명시	-11.2601
뤼	-11.2602
ser	-11.2602
ny	-11.2604
▁화폐	-11.2605
▁잃고	-11.2605
기지	-11.2605
▁부품	-11.2607
▁접수	-11.2609
▁경사	-11.2611
und	-11.2611
▁신뢰할	-11.2614
되지만	-11.2617
▁군사를	-11.2617
치가	-11.2618
▁우리의	-11.2618
▁받으며	-11.262
▁파울	-11.262
▁못할	-11.2621
▁패밀리	-11.2622
▁선교	-11.2623
▁차원	-11.2623
▁인기가	-11.2624
▁김선	-11.2625
▁님	-11.2626
SI	-11.2626
▁결정을	-11.2627
lambda	-11.2627
ker	-11.2627
▁주류	-11.2628
▁학위	-11.2629
▁이루어	-11.2629
▁거리를	-11.263
▁le	-11.2631
▁영토를	-11.2632
▁스웨덴의	-11.2632
▁(1986	-11.2634
▁목숨을	-11.2636
▁자가	-11.2637
je	-11.2639
▁라이프	-11.2639
AB	-11.2639
▁막을	-11.264
▁국정	-11.2641
스틱	-11.2641
▁조기	-11.2642
▁가르	-11.2642
▁되기도	-11.2646
ju	-11.2647
토시	-11.2651
less	-11.2651
툰	-11.2652
▁유고슬라비아	-11.2652
▁케네디	-11.2654
▁평면	-11.2657
▁액체	-11.2657
CA	-11.2659
▁아르메니아	-11.2659
타케	-11.2659
▁안보	-11.2659
Mo	-11.2664
▁이순신	-11.2667
▁몰락	-11.2667
▁아이템	-11.2669
\\	-11.2669
▁그들	-11.267
流	-11.2672
▁세계를	-11.2673
▁이곳에	-11.2673
▁본관	-11.2674
▁음모	-11.2674
계에	-11.2675
▁사이클	-11.2675
▁필립	-11.2678
▁(8	-11.2678
▁내놓	-11.2678
▁열었다	-11.2678
▁이온	-11.2679
▁q	-11.2679
▁굉장히	-11.2679
▁마코토	-11.268
eo	-11.268
▁석방	-11.2681
▁포함된다	-11.2681
▁이곳	-11.2682
▁구성하는	-11.2684
▁영광	-11.2684
나라별	-11.2686
▁역임하였다	-11.269
법의	-11.2691
▁지나지	-11.2691
▁삼각형	-11.2694
ord	-11.2694
▁사회의	-11.2696
▁진나라	-11.2696
럽	-11.2696
보도	-11.2697
▁시립	-11.2699
▁국토	-11.27
▁나이에	-11.2702
▁스티브	-11.2703
BS	-11.2705
▁이진	-11.2705
▁평생	-11.2706
▁에너지를	-11.2707
▁산타	-11.2708
▁This	-11.2712
▁욕	-11.2714
타점	-11.2716
판을	-11.2716
▁이관	-11.2717
멀	-11.2719
▁많고	-11.272
하겠다는	-11.272
▁감사합니다	-11.272
▁시점에서	-11.272
▁제자	-11.2721
list	-11.2721
va	-11.2722
도리	-11.2723
▁디즈니	-11.2725
▁신도	-11.2726
▁굵은	-11.2729
▁68	-11.2729
▁사면	-11.2729
카미	-11.2731
▁죽고	-11.2731
▁지원한다	-11.2731
▁자유를	-11.2734
▁타이거스	-11.2734
▁바이올린	-11.2735
주었다	-11.2736
ö	-11.2737
▁부착	-11.2737
rus	-11.2738
▁스마트	-11.2739
▁연설	-11.274
▁내용에	-11.2741
▁데리고	-11.2743
▁효과가	-11.2743
▁우드	-11.2743
▁한쪽	-11.2744
▁친일	-11.2744
^{\	-11.2746
ever	-11.2746
▁헤드	-11.2747
▁특징을	-11.2748
경기장	-11.2748
(2005	-11.275
SCP	-11.2752
▁신흥	-11.2757
▁요코	-11.2757
▁■	-11.2758
▁미국으로	-11.276
▁이론을	-11.2761
또	-11.2762
이니	-11.2764
태양	-11.2764
▁유니폼	-11.2765
fer	-11.2766
령을	-11.2769
리지	-11.2771
み	-11.2771
▁표제어	-11.2772
▁유우	-11.2772
▁가치를	-11.2774
▁철학자	-11.2774
바다	-11.2775
안에	-11.2776
ib	-11.2778
▁도메인	-11.278
▁사용자를	-11.2781
특집	-11.2782
▁solid	-11.2783
▁사용자토론	-11.2786
▁나오지	-11.2787
命	-11.2787
hy	-11.2787
▁101	-11.2788
이스	-11.279
▁트레	-11.2791
▁공간을	-11.2792
▁했다고	-11.2795
ted	-11.2799
▁머리를	-11.2799
▁탱크	-11.2799
▁자리에서	-11.2802
부작	-11.2802
▁서쪽으로	-11.2808
생명	-11.281
▁수요	-11.2811
▁이상한	-11.2816
키스	-11.2816
등록	-11.2817
산성	-11.282
▁사다	-11.282
{{	-11.2822
▁따서	-11.2822
▁득표	-11.2823
▁설치되었다	-11.2823
비는	-11.2823
app	-11.2825
▁아프가니스탄	-11.2825
▁강력	-11.2826
▁곳은	-11.2827
▁인디언	-11.2829
구간	-11.283
▁성서	-11.283
議	-11.283
▁성립한다	-11.2834
▁자신에게	-11.2836
▁학과	-11.2836
▁슬	-11.2836
럭	-11.284
봄	-11.2841
▁번호는	-11.2842
▁선두	-11.2843
▁Ka	-11.2844
▁초기에는	-11.2849
▁유이	-11.285
▁Best	-11.2851
년경	-11.2851
지부	-11.2852
▁정류장	-11.2853
▁신지	-11.2853
▁복제	-11.2855
승차	-11.2855
해져	-11.2856
▁SC	-11.2857
▁성과를	-11.2858
씨가	-11.2858
머스	-11.2861
▁ISBN	-11.2861
PD	-11.2862
▁면역	-11.2862
엄마	-11.2863
▁활동에	-11.2864
▁좌파	-11.2867
으므로	-11.2869
▁기준을	-11.2869
나스	-11.2871
▁해적	-11.2871
보니	-11.2874
▁입대	-11.2874
ev	-11.2876
고리	-11.2877
▁끝까지	-11.2877
康	-11.2878
OL	-11.2881
출장소	-11.2881
▁유입	-11.2881
▁마치고	-11.2882
▁가질	-11.2884
▁규	-11.2887
▁폭스	-11.2887
▁!9	-11.2888
었을	-11.2888
▁KIA	-11.2889
▁Mi	-11.2889
お	-11.2892
IL	-11.2892
넘	-11.2892
si	-11.2893
▁전향	-11.2894
▁오리콘	-11.2897
▁앨리스	-11.2899
▁valign	-11.2899
▁땅을	-11.29
▁갓	-11.29
▁CPU	-11.2901
▁노스	-11.2903
▁김명	-11.2908
▁음향	-11.291
▁실력	-11.2911
▁레인	-11.2913
▁1915	-11.2914
▁위키프로젝트	-11.2916
】	-11.2917
▁결과적으로	-11.2917
▁홀로	-11.2918
▁국민당	-11.2918
▁요정	-11.2919
▁독재	-11.2919
結	-11.292
▁가공	-11.2924
▁AS	-11.2926
▁차단된	-11.2927
▁소속사	-11.2927
형은	-11.2929
▁사용자들이	-11.293
▁목록이다	-11.2932
▁변화가	-11.2932
▁그리스의	-11.2932
▁케빈	-11.2933
▁펄	-11.2937
▁에르	-11.2937
▁수백	-11.2939
MP	-11.294
ins	-11.2941
▁흉	-11.2941
▁편의	-11.2941
▁영어판	-11.2945
대통령	-11.2946
≫	-11.2947
科	-11.295
들이다	-11.295
▁단축	-11.2951
▁2.0	-11.2952
것을	-11.2953
▁얻게	-11.2953
체제	-11.2953
▁해임	-11.2954
발매일	-11.2956
만은	-11.2956
못	-11.2959
|–	-11.296
▁오디션	-11.296
▁일자	-11.296
▁고쳐	-11.296
▁(1991	-11.2961
▁진정	-11.2961
▁동쪽으로	-11.2962
▁군이다	-11.2962
▁명명	-11.2966
▁가도	-11.2967
▁굳	-11.2968
▁올림픽에서	-11.2968
uch	-11.2968
공단	-11.2968
▁말기	-11.297
▁un	-11.297
▁Society	-11.297
▁사안	-11.2971
ns	-11.2971
▁빛의	-11.2972
php	-11.2972
▁가능성을	-11.2974
▁생년월일	-11.2975
▁만남	-11.2976
리고	-11.2978
▁위험한	-11.2981
▁압박	-11.2982
▁Pre	-11.2984
키타	-11.2986
print	-11.2987
엉	-11.2988
▁대부분을	-11.2988
▁않는다는	-11.299
데르	-11.2991
(2009	-11.2992
▁일본은	-11.2994
▁대답	-11.2996
장애	-11.2997
▁고기	-11.2997
구단	-11.2998
졌으며	-11.2999
▁top	-11.2999
쳤다	-11.2999
▁추대	-11.2999
늘	-11.3
體	-11.3001
기독교	-11.3001
▁광산	-11.3001
祖	-11.3002
▁무력	-11.3002
▁그럼에도	-11.3004
하기에	-11.3004
▁허리케인	-11.3005
▁신동	-11.3006
(2008	-11.3006
▁보잉	-11.3007
너스	-11.3007
▁금요일	-11.3008
▁상인	-11.301
▁과학적	-11.3011
▁피트	-11.3011
▁따르는	-11.3012
컴	-11.3012
느냐	-11.3012
란트	-11.3012
Li	-11.3013
▁일어난다	-11.3013
▁철회	-11.3014
▁요괴	-11.3015
▁이야기가	-11.3015
▁옮김	-11.3017
▁민족주의	-11.3018
▁합쳐	-11.3018
▁냉	-11.302
층의	-11.302
호텔	-11.3021
陵	-11.3021
▁오디오	-11.3022
▁죽어	-11.3022
▁현상을	-11.3022
▁융합	-11.3025
ez	-11.3027
운동을	-11.3027
Ma	-11.303
▁농장	-11.3031
협정	-11.3031
▁부통령	-11.3031
가미	-11.3033
▁칼리	-11.3033
위치	-11.3033
▁협	-11.3034
ash	-11.3035
▁하사	-11.3036
변경	-11.3036
량은	-11.3037
▁최후	-11.3039
▁내는	-11.304
▁아니었다	-11.3043
▁사료	-11.3045
▁이내	-11.3045
▁외교관	-11.3045
▁작품의	-11.3047
음력	-11.3048
▁Tr	-11.3049
▁96	-11.305
공동	-11.305
mon	-11.3051
쾌	-11.3052
인치	-11.3053
사토	-11.3053
等	-11.3054
▁달성하였다	-11.3054
▁운명	-11.3055
▁High	-11.3055
▁준보호	-11.3056
▁리메이크	-11.3056
▁되돌리기	-11.3057
▁98	-11.3058
달러	-11.3058
브레	-11.3058
노프	-11.3061
▁마키	-11.3062
융	-11.3064
▁전임	-11.3065
▁꼽	-11.3069
▁늘어	-11.3069
▁박종	-11.3069
▁박성	-11.307
큰	-11.307
FE	-11.3072
드로	-11.3072
언론	-11.3072
받는	-11.3074
tro	-11.3077
▁덮	-11.3078
▁컴	-11.3079
▁운동에	-11.308
하자는	-11.3082
▁축하	-11.3083
광고	-11.3086
유리	-11.3087
/>	-11.3088
▁아크	-11.3088
▁와이번스	-11.3089
▁직선	-11.3089
▁장인	-11.309
▁종사	-11.3091
▁곤충	-11.3093
이즈	-11.3093
▁토모	-11.3094
먼트	-11.3094
▁이루어진다	-11.3098
aw	-11.3098
▁공국	-11.31
夏	-11.31
▁과거의	-11.3103
▁결과로	-11.3104
▁(9)	-11.3104
▁환영	-11.3105
▁와타나베	-11.3106
▁var	-11.3107
▁우익	-11.311
▁최대한	-11.3111
▁플	-11.3112
께	-11.3115
구리	-11.3119
▁BS	-11.3122
▁예전	-11.3127
(2001	-11.3127
▁스마트폰	-11.3129
홈	-11.3132
▁5000	-11.3134
어의	-11.3135
="7%"	-11.3137
트를	-11.3137
▁손님	-11.3137
▁대위	-11.3138
▁닿	-11.3138
▁이슈	-11.3139
제국	-11.314
하였기	-11.3141
▁my	-11.3143
▁약한	-11.3143
▁Dream	-11.3143
▁약간의	-11.3145
▁한국어판	-11.3146
DS	-11.3147
▁톱	-11.3149
▁계기가	-11.315
–19	-11.3151
물의	-11.3151
▁타점	-11.3152
종이	-11.3153
▁성공회	-11.3153
▁유진	-11.3153
圖	-11.3155
법으로	-11.3155
▁all	-11.3155
▁결선	-11.3157
▁비즈니스	-11.3157
▁방향을	-11.3159
▁공략	-11.3159
▁ed	-11.3159
▁야간	-11.3161
단이	-11.3163
종류	-11.3166
yl	-11.3166
傳	-11.3167
▁가담	-11.3168
▁기어	-11.3168
범죄	-11.3168
▁이곳에서	-11.317
미나	-11.3172
修	-11.3174
▁버리고	-11.3174
음반	-11.3174
끼리	-11.3177
Bo	-11.3178
픽셀	-11.3179
▁설비	-11.3179
▁동굴	-11.318
출전	-11.318
▁타는	-11.3181
▁61	-11.3181
▁지나치게	-11.3181
▁냈다	-11.3181
▁(6	-11.3182
▁삼았다	-11.3183
▁자회사	-11.3183
▁걸려	-11.3185
▁인간이	-11.3186
▁대원	-11.3187
▁진동	-11.3188
▁곳을	-11.319
Location	-11.3193
▁외모	-11.3194
이든	-11.3195
ings	-11.3195
▁Art	-11.3197
▁왕족	-11.3198
▁모래	-11.3199
▁출구	-11.3199
▁배신	-11.3203
고종	-11.3203
▁전적	-11.3204
▁왕립	-11.3205
▁co	-11.3208
▁님이	-11.3211
세종	-11.3212
▁구성된다	-11.3212
▁종교적	-11.3214
조약	-11.3214
▁랑	-11.3216
▁출처를	-11.3217
▁페어	-11.3217
▁파이어	-11.3217
차이	-11.3217
)=\	-11.3218
▁Black	-11.322
▁사무실	-11.3227
애니메이션	-11.3231
▁입문	-11.3234
▁네이	-11.3234
▁노비	-11.3235
▁생방송	-11.3236
▁스쿨	-11.3236
Gamma	-11.3237
▁회차	-11.3237
保	-11.3238
SC	-11.3239
▁비례대표	-11.324
▁주목을	-11.324
▁최근에	-11.3241
▁San	-11.3241
▁사용이	-11.3243
250	-11.3245
▁추격	-11.3246
▁협약	-11.3249
殿	-11.3249
▁읽는	-11.325
듀	-11.325
▁측은	-11.3251
▁과제	-11.3252
▁된다는	-11.3254
▁닌텐도	-11.3254
▁황제의	-11.3255
▁쇠퇴	-11.3259
ute	-11.326
▁원시	-11.3261
▁cm	-11.3262
▁up	-11.3264
▁주제로	-11.3266
~10	-11.3272
▁관계자	-11.3272
▁전형적인	-11.3272
▁노선이	-11.3274
선조	-11.3274
▁활동한	-11.3276
▁마야	-11.3276
▁이익을	-11.3277
▁섬에	-11.3279
▁이끌어	-11.3282
▁포스	-11.3283
▁Mc	-11.3286
▁사신	-11.3286
▁제주특별자치도	-11.3286
マ	-11.3286
so	-11.3287
▁다양체	-11.3288
▁크기가	-11.3289
▁per	-11.3289
▁북한의	-11.3289
▁때문이었다	-11.329
▁다니	-11.3292
클라	-11.3293
체가	-11.3293
》-	-11.3294
▁옮겼다	-11.3299
▁게임의	-11.33
하세요	-11.3301
▁입구	-11.3302
▁멀	-11.3302
장과	-11.3303
▁계시	-11.3303
-30	-11.3304
▁he	-11.3304
▁킨	-11.3306
▁각본가	-11.3306
형식	-11.3307
口	-11.3309
▁불참	-11.3311
▁때도	-11.3312
▁일시	-11.3312
▁싸	-11.3314
▁드라이브	-11.3315
nhn	-11.3316
▁끈	-11.332
▁공격수	-11.3323
▁85	-11.3323
퐁	-11.3323
▁공감	-11.3324
▁히데요시	-11.3324
▁느	-11.3324
▁쳐	-11.3326
▁초안	-11.3327
▁산다	-11.3328
▁권위	-11.3328
▁것들	-11.333
▁루시	-11.333
▁모른다	-11.3331
▁사적	-11.3331
omega	-11.3335
▁골프	-11.3335
▁카즈	-11.3336
▁위기에	-11.3336
▁않았으며	-11.3336
폴리	-11.3337
▁호는	-11.3338
▁유해	-11.3338
▁먹이	-11.3338
廣	-11.3339
▁화합물	-11.3341
▁글이	-11.3342
공무원	-11.3342
▁일도	-11.3342
▁아마추어	-11.3344
▁자신과	-11.3346
▁자랑	-11.3346
▁과목	-11.3347
ct	-11.3347
▁유대	-11.3349
car	-11.3349
▁크라	-11.335
ack	-11.335
▁올스타	-11.3351
▁성격이	-11.3352
나오	-11.3352
▁크레	-11.3357
▁이어졌다	-11.3357
재판	-11.3359
▁추모	-11.336
ren	-11.336
▁공개되었다	-11.3362
▁1916	-11.3365
▁포스트	-11.3368
(2014	-11.337
▁열차는	-11.337
▁구미	-11.3372
▁내리	-11.3373
▁용산	-11.3375
▁주변의	-11.3376
릭스	-11.3377
▁교실	-11.3377
▁닫	-11.3378
아들	-11.3378
네이	-11.3379
▁차지하는	-11.338
▁하드웨어	-11.3381
▁제휴	-11.3382
ations	-11.3383
놈	-11.3383
▁탕	-11.3386
▁유배	-11.3387
시게	-11.3389
sc	-11.3389
▁호칭	-11.3389
인으로	-11.3391
▁챌린지	-11.3392
산군	-11.3394
土	-11.3398
경기에서	-11.3399
~6	-11.34
cl	-11.34
친구	-11.3402
▁일족	-11.3403
▁텍스트	-11.3406
▁김대	-11.341
▁유럽에서	-11.3411
▁존재를	-11.3413
문화재	-11.3414
놀이	-11.3415
▁불안	-11.3415
▁대학의	-11.3416
▁여우주연상	-11.3417
▁죽자	-11.3419
▁명칭으로	-11.3419
▁마음이	-11.3421
▁남겨	-11.3428
(1)	-11.3429
당신	-11.3429
▁미만	-11.343
▁주민들	-11.3432
(2004	-11.3432
▁남동생	-11.3433
▁기상청	-11.3433
▁소닉	-11.3434
미스	-11.3436
▁thumb	-11.3437
▁십자군	-11.3438
tt	-11.3439
▁하다가	-11.3439
피아	-11.3439
▁호조	-11.344
(12	-11.3443
▁태도를	-11.3444
▁스파이	-11.3445
시절	-11.3445
차를	-11.3446
▁정통	-11.3446
▁망원경	-11.3448
▁대항	-11.3451
▁동남아시아	-11.3451
관계를	-11.3456
▁회계	-11.3456
▁민주화	-11.3456
▁마리오	-11.3458
▁당선자	-11.3459
ization	-11.3459
▁꿈을	-11.3459
▁전제	-11.346
ck	-11.3461
▁대안	-11.3461
▁흙	-11.3462
▁얻기	-11.3463
▁스튜어트	-11.3464
▁처분	-11.3467
▁한겨레	-11.3469
자에	-11.3472
국사	-11.3472
▁폐지되었다	-11.3472
•	-11.3472
▁지중해	-11.3473
▁영국군	-11.3473
▁근거가	-11.3474
▁총괄	-11.3474
▁값을	-11.3474
▁도움	-11.3475
에르	-11.3476
▁국가들	-11.3477
mode	-11.3477
타르	-11.3477
▁관점에서	-11.3477
▁경선	-11.3478
▁Project	-11.348
및	-11.348
영의	-11.348
1997	-11.3483
▁얻는	-11.3483
erry	-11.3484
▁읽어	-11.3485
▁승자	-11.3485
▁전체적으로	-11.3486
▁네오	-11.3486
▁역이다	-11.3486
▁파동	-11.3486
어요	-11.3487
▁오케스트라	-11.3487
▁토르	-11.349
▁파르	-11.349
▁대책	-11.3492
▁규격	-11.3495
▁PS	-11.3495
▁Night	-11.3496
행사	-11.3496
▁고치	-11.3497
초등학교는	-11.3498
꼬	-11.35
▁마법사	-11.3502
▁인력	-11.3504
▁과학자	-11.3504
버린	-11.3505
▁생각한다	-11.3511
▁미국에	-11.3511
▁실버	-11.3513
PC	-11.3515
치기	-11.3517
令	-11.3517
그리고	-11.3519
shadow	-11.3524
오사카	-11.3524
로서는	-11.3524
▁`	-11.3527
▁≪	-11.3527
wi	-11.3527
▁마음에	-11.3528
▁의사를	-11.3529
인도	-11.3529
130	-11.353
▁명사	-11.3531
아스	-11.3534
▁머물	-11.3535
▁심사위원	-11.3537
mar	-11.3539
▁연도별	-11.3539
д	-11.354
▁법령	-11.3541
(2007	-11.3541
タ	-11.3542
▁애플리케이션	-11.3544
블리	-11.3544
ound	-11.3544
세상	-11.3545
▁CH	-11.3545
▁좁은	-11.3545
▁차지하였다	-11.3546
▁개척	-11.3547
톨	-11.3547
▁가톨릭교회	-11.3548
RedMosQ	-11.3549
▁수컷	-11.3549
▁이복	-11.3553
▁주말연속극	-11.3554
sid	-11.3555
▁중추원	-11.3557
고려사	-11.3559
章	-11.3561
왜	-11.3561
롯	-11.3562
▁홍수	-11.3564
:#6666	-11.3566
물이	-11.3566
시타	-11.3567
미르	-11.3569
▁들어온	-11.3569
벳	-11.357
▁요인	-11.3574
▁발효	-11.3575
▁본명은	-11.3575
▁명으로	-11.3575
▁랜	-11.3578
▁대대	-11.3579
▁제재	-11.358
렁	-11.358
▁첼시	-11.3582
eb	-11.3584
TM	-11.3584
▁고발	-11.3585
▁청원	-11.3585
▁시간은	-11.3586
▁발레	-11.3586
▁오프	-11.3587
▁개인적으로	-11.3588
▁실시된	-11.3589
하였	-11.3589
▁별칭	-11.359
▁중국에서	-11.3591
▁SA	-11.3591
▁Ca	-11.3591
▁믿음	-11.3592
루수	-11.3592
▁렌즈	-11.3592
▁국립공원	-11.3593
▁st	-11.3596
▁거두	-11.3597
▁직접적인	-11.3598
▁정부를	-11.36
▁전망	-11.3601
입구	-11.3602
▁찾아서	-11.3602
▁정권을	-11.3603
▁키보드	-11.3604
리언	-11.3604
~8	-11.3604
▁목적을	-11.3604
▁물건	-11.3605
▁(9	-11.3605
아마	-11.3605
▁싫어	-11.3606
▁조부	-11.3608
르는	-11.361
▁사용자에게	-11.361
▁성씨	-11.3611
▁단종	-11.3613
▁미즈	-11.3614
▁공식적인	-11.3616
▁디비전	-11.3616
천면	-11.3618
▁캄	-11.3618
▁존경	-11.3619
▁부수	-11.3619
▁Your	-11.362
▁교전	-11.3621
ath	-11.3622
開	-11.3623
박스	-11.3623
ms	-11.3623
侯	-11.3625
:#669966	-11.3626
▁문화재자료	-11.3626
▁일본국유철도	-11.3627
▁원주민	-11.3627
▁문화적	-11.363
▁전장	-11.3631
▁지옥	-11.3632
sen	-11.3632
▁실종	-11.3633
부와	-11.3633
▁심의	-11.3633
▁경험을	-11.3634
▁뿐이다	-11.3635
곱	-11.3635
중이다	-11.364
▁포드	-11.364
▁뜻이다	-11.3641
▁영국과	-11.3641
해양	-11.3642
▁떠난	-11.3643
▁남한	-11.3643
▁트럭	-11.3646
▁읽기	-11.3646
▁질환	-11.3649
하실	-11.365
▁묘소	-11.3652
Pro	-11.3654
▁밖의	-11.3656
▁몰아	-11.3657
▁서원	-11.366
▁캘리포니아주	-11.366
▁정이	-11.3661
▁사이가	-11.3661
시와	-11.3662
클로	-11.3665
슬리	-11.3667
▁교역	-11.3669
▁BC	-11.3669
되던	-11.3669
eg	-11.3671
▁그림자	-11.3673
▁소식	-11.3673
▁포크	-11.3675
사리	-11.3676
▁하시	-11.368
진을	-11.3682
사장	-11.3683
BE	-11.3683
▁자유한국당	-11.3683
▁사고로	-11.3684
▁하천	-11.3684
▁그대	-11.3685
▁데이비스	-11.3687
▁완화	-11.3688
▁기름	-11.3689
well	-11.3691
▁하원	-11.3691
▁77	-11.3692
반도	-11.3694
▁리눅스	-11.3694
lic	-11.3695
▁발족	-11.3697
모양	-11.3698
▁영화배우이다	-11.3698
▁Ad	-11.3698
소년	-11.37
▁벌였다	-11.37
▁이외에	-11.37
▁계획이	-11.3701
▁중립	-11.3702
▁총무	-11.3705
▁멘	-11.3705
▁천문학	-11.3705
▁나라를	-11.3706
그리스	-11.3706
▁서독	-11.3709
さ	-11.3709
▁후계자	-11.3711
▁기상	-11.3712
▁쏘	-11.3712
▁타인	-11.3712
HA	-11.3712
▁신전	-11.3712
▁칩	-11.3713
▁쉬운	-11.3713
▁62	-11.3714
국은	-11.3715
▁나갔다	-11.3715
寶	-11.3719
Talk	-11.3719
▁회원국	-11.372
해진다	-11.372
多	-11.3722
▁(15	-11.3722
▁살았다	-11.3723
▁쾌속	-11.3723
▁진정한	-11.3724
▁필요성	-11.3724
▁(10)	-11.3724
▁자유주의	-11.3726
▁오스트레일리아의	-11.3727
志	-11.3729
ida	-11.3729
▁국가가	-11.3729
토막글	-11.3729
▁103	-11.373
청소년	-11.373
▁말하며	-11.3731
▁돌아오	-11.3734
▁총회	-11.3734
▁할당	-11.3735
▁하나를	-11.3735
▁꺾	-11.3737
▁통칭	-11.3737
▁후반에	-11.3738
레이션	-11.3738
▁송시열	-11.3739
▁남기	-11.374
▁유출	-11.3741
▁엑스	-11.3742
소가	-11.3743
▁보완	-11.3744
이었기	-11.3744
▁라이브러리	-11.3744
▁시절에	-11.3745
▁자격을	-11.3745
▁특수한	-11.3746
▁se	-11.3747
▁평소	-11.3749
▁사용하기	-11.375
ther	-11.375
▁지금도	-11.3751
▁리버풀	-11.3752
▁세우고	-11.3753
▁잃은	-11.3754
▁성직자	-11.3754
▁여부를	-11.3756
唐	-11.3756
▁항일	-11.3759
!!4	-11.3762
▁국정원	-11.3763
▁연예인	-11.3763
fr	-11.3766
▁지부	-11.3766
▁수익	-11.3767
레인	-11.3768
▁부흥	-11.3769
▁펠	-11.3771
任	-11.3772
▁왕위	-11.3772
▁퇴임	-11.3772
tal	-11.3773
▁관직	-11.3774
▁우연히	-11.3775
▁못했고	-11.3775
180	-11.3776
▁계절	-11.3777
펀	-11.3779
보드	-11.378
간에	-11.3781
▁지수	-11.3782
ble	-11.3782
부르크	-11.3783
경기도	-11.3784
▁높아	-11.3784
▁고통	-11.3784
▁출생지	-11.3785
이었는데	-11.3786
▁취재	-11.3786
秀	-11.3787
▁흐	-11.3788
▁마녀	-11.3789
공고	-11.3789
▁해병대	-11.3789
="4"|	-11.379
▁단장	-11.3791
津	-11.3792
▁그림을	-11.3794
▁에리	-11.3794
6;"	-11.3795
▁자체를	-11.38
▁위탁	-11.3801
治	-11.3803
▁대왕	-11.3804
트의	-11.3804
▁대서양	-11.3805
▁루트	-11.3809
▁아들이	-11.3811
▁거론	-11.3818
▁옹	-11.3818
산초등학교	-11.3819
▁대조	-11.3821
▁쥬	-11.3821
렸고	-11.3821
▁타이틀을	-11.3822
>(<	-11.3824
▁속으로	-11.3826
▁덧붙여	-11.3827
朝鮮	-11.3829
공파	-11.383
▁다음에	-11.3833
▁will	-11.3833
▁따위	-11.3834
조를	-11.3835
ala	-11.3837
▁인물이다	-11.3837
▁이반	-11.3837
▁뤼	-11.3838
어가	-11.3838
▁증기	-11.3838
▁시작하는	-11.3839
コ	-11.384
▁인물이	-11.3841
▁달린	-11.3841
▁실업	-11.3842
▁듯한	-11.3842
위가	-11.3844
▁누군가	-11.3845
▁Jo	-11.3846
▁수호	-11.3846
▁측면에서	-11.3846
▁되었다고	-11.3847
▁말고	-11.3848
ita	-11.3849
▁베네수엘라	-11.3849
▁쓰기	-11.385
▁갱신	-11.3851
▁차트에서	-11.3851
▁안녕	-11.3852
▁sub	-11.3853
▁생명체	-11.3853
▁기반을	-11.3853
종목	-11.3853
▁별다른	-11.3856
▁제작자	-11.3856
▁사물	-11.3858
▁포함되었다	-11.3859
무장	-11.3859
▁소지	-11.3862
▁스펙트럼	-11.3862
보스	-11.3862
▁생기는	-11.3863
5,000	-11.3866
▁손가락	-11.3866
돔	-11.3867
▁나선	-11.3868
▁Pi	-11.3873
▁(1985	-11.3873
▁신의	-11.3873
▁툴	-11.3874
짜리	-11.3875
▁프로세스	-11.3876
▁분량	-11.3877
1998	-11.3877
▁130	-11.3879
▁뛰	-11.3879
SM	-11.388
부제	-11.388
▁부르기도	-11.388
쿨	-11.3881
▁관중	-11.3881
▁참고자료	-11.3882
▁일환으로	-11.3883
▁도시철도	-11.3884
▁없애	-11.3885
▁훌륭한	-11.3885
ST	-11.3886
▁시공	-11.3888
▁듀얼	-11.3888
:#996699	-11.3888
▁받	-11.3888
▁불가능하다	-11.3889
▁외의	-11.3889
▁수록되어	-11.389
▁회화	-11.389
初	-11.389
▁구제	-11.3892
用	-11.3892
我	-11.3892
▁뱀	-11.3893
▁후보가	-11.3894
룰	-11.3894
▁사정	-11.3899
▁시범	-11.3904
▁받기	-11.3907
▁법학	-11.3908
▁클	-11.391
▁Gra	-11.3911
▁위장	-11.3911
承	-11.3911
▁취미	-11.3912
▁하나님	-11.3917
농업	-11.3919
▁만화가	-11.3919
^3	-11.3919
▁현상이	-11.3919
▁앙리	-11.3919
▁청주시	-11.392
▁범인	-11.3921
▁칼라	-11.3922
헌법	-11.3922
語	-11.3923
Pa	-11.3923
For	-11.3923
▁스페이스	-11.3926
문의	-11.3926
▁이스트	-11.3927
▁상상	-11.3927
▁결정했다	-11.3927
nes	-11.393
DP	-11.393
▁퀴즈	-11.393
▁IN	-11.3932
zi	-11.3933
index	-11.3934
▁스탈린	-11.3935
▁data	-11.3936
겠다는	-11.3937
▁차기	-11.3937
형사	-11.3938
ain	-11.3938
▁며칠	-11.3938
▁드러내	-11.3938
▁중대	-11.3939
▁미스터	-11.3941
fe	-11.3941
day	-11.3943
▁부패	-11.3944
弘	-11.3946
▁응원	-11.3948
+)	-11.3949
▁맵	-11.395
▁교차	-11.395
전차	-11.395
觀	-11.3951
▁타이틀곡	-11.3951
ナ	-11.3951
▁Gu	-11.3951
▁David	-11.3953
▁어렵다	-11.3954
vel	-11.3954
그라	-11.3955
▁한성부	-11.3956
▁올림픽에	-11.3961
▁흐르는	-11.3962
물로	-11.3963
溪	-11.3964
세기의	-11.3964
받	-11.3965
▁중재위원	-11.3969
▁City	-11.3969
▁도심	-11.397
▁우수한	-11.397
▁것보다	-11.397
vo	-11.397
▁다음으로	-11.3971
구미	-11.3971
▁동지	-11.3972
cer	-11.3974
팝	-11.3974
▁메타	-11.3976
ド	-11.3976
ada	-11.3976
▁직위	-11.3976
가야	-11.3979
▁정확하게	-11.3979
▁유니폴리	-11.3979
▁가져	-11.3979
▁기병	-11.3979
하시면	-11.398
▁개인적인	-11.3982
▁강경	-11.3983
左	-11.3983
엔진	-11.3986
▁성주	-11.3987
지금	-11.3988
통계	-11.3988
▁und	-11.3991
▁빼앗	-11.3992
▁여단	-11.3994
▁생각했다	-11.3995
뷰	-11.3996
▁당선인	-11.3996
▁닉	-11.3997
▁김혜	-11.3998
▁얀	-11.3999
DCDCDC	-11.4
▁종로구	-11.4
태평양	-11.4
▁끝났다	-11.4002
▁직결	-11.4003
ij	-11.4004
▁가득	-11.4005
▁쿠로	-11.4006
▁이르기까지	-11.4006
ome	-11.401
ales	-11.401
▁밑에	-11.4011
주식회사	-11.4011
▁수학자	-11.4013
현상	-11.4013
랩	-11.4013
▁퍼시픽	-11.4014
텔레콤	-11.4016
▁정면	-11.4018
▁비슷하다	-11.4018
▁물리적	-11.4019
▁주변에	-11.402
▁많	-11.4024
▁경전	-11.4025
상황	-11.4025
old	-11.4025
보는	-11.4026
▁결과는	-11.4027
▁동인	-11.4027
사령관	-11.4027
▁남우주연상	-11.4028
▁단막극	-11.4028
▁죠	-11.4028
▁전부터	-11.4032
臣	-11.4034
▁승부	-11.4035
▁남인	-11.4035
문자	-11.4035
▁막아	-11.4035
▁서방	-11.4036
마트	-11.4036
▁산지	-11.4037
rum	-11.4037
▁미츠	-11.404
해왔다	-11.404
▁아무도	-11.404
常	-11.404
nh	-11.4041
겼다	-11.4041
▁던	-11.4043
▁박지	-11.4044
▁인물들	-11.4045
선으로	-11.4045
▁운반	-11.4046
▁규정하고	-11.4047
보살	-11.4047
▁병설유치원	-11.4047
▁보내는	-11.4048
▁불리며	-11.4049
▁요원	-11.4049
▁다룬	-11.405
▁직책	-11.4051
ano	-11.4051
▁무릎	-11.4051
?--	-11.4052
▁76	-11.4052
▁고가	-11.4052
▁바이오	-11.4052
AGB	-11.4052
▁윈	-11.4052
El	-11.4052
대리	-11.4053
間	-11.4056
▁지사	-11.4056
▁수감	-11.4056
회관	-11.406
보건	-11.4061
▁거울	-11.4062
▁82	-11.4063
▁고수	-11.4063
▁스카	-11.4066
더니	-11.4067
싸	-11.4068
▁열심히	-11.4069
qquad	-11.4069
▁행정부	-11.407
▁해명	-11.407
▁넓이는	-11.407
잇	-11.4071
내가	-11.4072
▁가지게	-11.4074
▁백성들	-11.4075
▁않는다고	-11.4075
NA	-11.4076
▁상자	-11.4078
▁구로	-11.4078
▁하워드	-11.4078
▁의원은	-11.408
▁옹호	-11.408
▁상의	-11.4082
▁최악의	-11.4082
▁올리기	-11.4082
バ	-11.4083
▁계단	-11.4084
▁레슬링	-11.4085
국을	-11.4086
속에	-11.4089
전이	-11.4089
▁오늘날의	-11.4089
berg	-11.409
▁독도	-11.4091
▁이태	-11.4091
띠	-11.4092
▁야쿠르트	-11.4092
▁노트	-11.4092
▁리투아니아	-11.4093
▁(7	-11.4095
▁람	-11.4096
체로	-11.4098
일본의	-11.41
▁의견에	-11.41
▁에스토니아	-11.4101
▁열정	-11.4101
나와	-11.4101
역에서	-11.4101
big	-11.4102
▁방송된	-11.4103
리어	-11.4104
쟁이	-11.4105
pp	-11.4105
▁발탁	-11.4107
포인트	-11.4109
▁히틀러	-11.4109
▁후안	-11.4109
▁자바	-11.4111
▁형법	-11.4112
▁심리학	-11.4112
ウ	-11.4113
▁자산	-11.4114
체는	-11.4114
▁부처	-11.4115
▁메트로	-11.4116
▁MSL	-11.4118
▁포함해	-11.4118
했는지	-11.4118
▁않았기	-11.4121
▁중종	-11.4121
sion	-11.4121
▁자율	-11.4123
▁작전을	-11.4125
▁좌익	-11.4126
~18	-11.4126
face	-11.4128
▁서울대	-11.4128
▁else	-11.4129
▁빌헬름	-11.4129
국으로	-11.4132
▁방안	-11.4133
▁지표	-11.4133
▁반면에	-11.4134
생활을	-11.4134
▁(1984	-11.4137
▁합작	-11.4137
▁지혜	-11.4138
▁패스	-11.4138
▁통로	-11.4142
감이	-11.4142
▁가짜	-11.4143
DI	-11.4144
▁움직임	-11.4146
아버지	-11.4147
▁영어로	-11.415
▁여수	-11.415
숲	-11.415
▁마루	-11.4153
▁줄기	-11.4155
▁유지하고	-11.4156
▁아시안컵	-11.4156
카리	-11.4157
yo	-11.4158
▁정도가	-11.416
잡이	-11.4161
▁출입구	-11.4161
▁And	-11.4163
▁TO	-11.4164
▁향한	-11.4165
▁수렴	-11.4165
▁오타	-11.4167
▁죽을	-11.4167
▁레이디	-11.4168
바리	-11.4168
첸	-11.417
▁전당	-11.4171
▁차이를	-11.4171
▁구간을	-11.4173
▁싱어송라이터	-11.4173
되다	-11.4173
▁서서히	-11.4174
▁게임이다	-11.4174
▁바꾸어	-11.4175
阿	-11.4175
▁크림	-11.4177
작용	-11.4177
당은	-11.4177
사관	-11.4179
▁혈액	-11.418
▁Super	-11.418
버렸다	-11.4181
▁mw	-11.4181
▁생략	-11.4181
gr	-11.4182
ы	-11.4182
▁감정을	-11.4183
▁야마모토	-11.4184
▁핑	-11.4184
꿈	-11.4185
츄	-11.4185
애니맥스	-11.4187
▁부정적인	-11.4188
티나	-11.4189
무대	-11.4192
▁연기대상	-11.4193
徐	-11.4194
단으로	-11.4198
勝	-11.4199
▁입지	-11.4199
년생	-11.4202
+1	-11.4202
▁블라	-11.4202
▁대주교	-11.4203
▁아벨	-11.4203
▁신자	-11.4204
▁긴테쓰	-11.4204
▁67	-11.4207
ene	-11.4208
▁발매한	-11.4208
▁하겠습니다	-11.4209
(?)	-11.421
title	-11.4211
▁충북	-11.4212
▁장점	-11.4214
circ	-11.4215
▁최저	-11.4217
▁자유당	-11.4217
▁써서	-11.4218
▁더이상	-11.4221
▁Bu	-11.4222
▁차지한다	-11.4222
▁맥스	-11.4222
▁보강	-11.4223
▁멤버로	-11.4226
▁전례	-11.4227
▁웅	-11.4228
rea	-11.4233
za	-11.4234
▁돌리	-11.4234
▁행적	-11.4235
네이버	-11.4236
▁pre	-11.4237
don	-11.4238
패를	-11.4239
▁사람이다	-11.4239
▁가와	-11.4239
놓	-11.424
▁정벌	-11.4242
▁비잔티움	-11.4243
연출	-11.4244
▁정한	-11.4244
▁과학기술	-11.4244
득표율	-11.4245
▁레이스	-11.4246
▁알바	-11.4247
▁은퇴한	-11.4248
▁무인	-11.4249
▁제목으로	-11.425
▁군사적	-11.4253
▁가리	-11.4254
▁실점	-11.4256
▁정렬	-11.4256
ا	-11.4256
▁폭풍	-11.426
ase	-11.4262
▁감지	-11.4262
▁매치	-11.4263
eck	-11.4264
▁천재	-11.4264
▁기업인	-11.4264
PA	-11.4265
are	-11.4266
LI	-11.4266
▁Robert	-11.4266
▁부설	-11.4266
sec	-11.4267
단은	-11.4267
▁Cha	-11.4269
닉스	-11.4269
▁충남	-11.427
▁수색	-11.427
북한	-11.4272
▁참가하였다	-11.4272
▁밀리	-11.4273
▁불화	-11.4273
▁대신에	-11.4274
▁여기에서	-11.4276
р	-11.4277
룽	-11.4278
▁Out	-11.428
▁선수이자	-11.428
▁화장실	-11.4284
ple	-11.4285
▁레이저	-11.4286
▁영지	-11.4287
▁사우디아라비아	-11.4289
▁다운	-11.4292
▁빛을	-11.4295
▁가면라이더	-11.4296
▁흥행	-11.4297
▁마일	-11.4298
▁에디	-11.4298
▁지역이	-11.4299
하기를	-11.43
류의	-11.4301
TH	-11.4301
▁공동으로	-11.4302
▁Mon	-11.4302
▁마친	-11.4302
憲	-11.4304
▁수장	-11.4304
▁인연	-11.4305
▁제공하고	-11.4306
주의를	-11.4307
qui	-11.4307
▁협조	-11.4308
OR	-11.4308
▁와카	-11.4309
▁불편	-11.4312
▁바가	-11.4312
구는	-11.4312
화물	-11.4313
gamma	-11.4313
▁전류	-11.4314
▁사랑하는	-11.4315
▁달의	-11.4315
시켰고	-11.4316
▁톤	-11.4317
ame	-11.4317
▁서머	-11.4318
▁근접	-11.4318
▁당국	-11.4319
▁하라	-11.432
팽	-11.4321
▁제도의	-11.4324
▁360	-11.4324
노트	-11.4325
▁발전에	-11.4326
▁하거나	-11.4331
▁율	-11.4331
['	-11.4333
▁패전	-11.4336
陳	-11.4338
▁놀이	-11.4338
건축	-11.434
▁들어가는	-11.434
(2013	-11.4341
▁표현을	-11.4341
ax	-11.4345
▁사용을	-11.4345
736	-11.4345
왕이	-11.4346
制	-11.4346
dia	-11.435
▁거리에	-11.4352
▁포유류	-11.4352
베르크	-11.4352
▁Mag	-11.4354
글리	-11.4356
▁Max	-11.4356
▁결정전	-11.4357
▁민간인	-11.4359
▁상처	-11.436
▁구간은	-11.436
▁분화	-11.4361
archive	-11.4362
섰	-11.4362
▁담당하는	-11.4362
판이	-11.4363
▁장안	-11.4363
히사	-11.4364
▁예루살렘	-11.4365
▁경우에도	-11.4365
▁Season	-11.4366
▁table	-11.4366
▁그려져	-11.4367
▁라우	-11.4369
▁법무부	-11.4369
형제	-11.437
▁블루스	-11.4371
▁김인	-11.4372
▁편지를	-11.4373
▁전세계	-11.4374
▁금강	-11.4374
▁시호	-11.4375
▁후궁	-11.4375
▁딘	-11.4375
▁97	-11.4378
▁혜성	-11.438
후에	-11.4381
▁경연	-11.4382
ola	-11.4382
교실	-11.4382
▁의원이	-11.4382
▁그래도	-11.4383
▁작위	-11.4384
▁몸에	-11.4384
▁현금	-11.4385
▁김주	-11.4389
▁꾀	-11.4389
까지도	-11.4391
mann	-11.4391
▁야마토	-11.4391
▁게이지	-11.4392
DB	-11.4392
▁!11	-11.4393
▁경찰서	-11.4393
모스	-11.4394
▁마이너	-11.4395
IR	-11.4396
이면서	-11.4396
▁달아	-11.4397
▁주시	-11.4399
ool	-11.4399
부키	-11.44
퍼스	-11.44
▁스테	-11.4402
마크	-11.4402
노부	-11.4403
▁도카이	-11.4403
OO	-11.4404
jo	-11.4405
delta	-11.4405
매치	-11.4406
타나	-11.4406
▁나올	-11.4407
別	-11.4407
▁풍부한	-11.441
▁선교사	-11.441
덤	-11.4411
학사	-11.4412
▁리사	-11.4412
ani	-11.4413
▁고무	-11.4413
조제	-11.4414
진영	-11.4414
NuvieK	-11.4415
cre	-11.4418
▁독자적인	-11.4419
ray	-11.4419
▁관해	-11.4419
리크	-11.4419
▁친정	-11.4421
▁방침	-11.4421
▁적의	-11.4425
▁신한은행	-11.4426
族	-11.4427
▁저주	-11.4428
▁State	-11.4428
▁업적	-11.4428
▁피고인	-11.4428
1996	-11.443
qu	-11.4431
場	-11.4431
▁태권도	-11.4432
공신	-11.4433
티드	-11.4433
▁부위	-11.4434
▁접한다	-11.4435
cy	-11.4435
▁지내고	-11.4436
▁낫	-11.4436
▁확신	-11.4437
▁사령부	-11.4439
受	-11.444
cha	-11.444
▁Her	-11.4441
▁마케도니아	-11.4442
신학	-11.4442
▁사당	-11.4443
▁우루과이	-11.4446
▁추억	-11.4446
▁서정	-11.4446
▁본질	-11.4446
▁착륙	-11.4448
인가	-11.4448
▁모자	-11.4449
인터넷	-11.445
▁대학교의	-11.4451
▁필라델피아	-11.4452
side	-11.4452
▁앤드	-11.4453
▁분야의	-11.4455
어도	-11.4456
연합회	-11.4456
았으며	-11.4457
▁one	-11.446
▁급제	-11.4462
▁160	-11.4462
▁삿포로	-11.4463
ane	-11.4464
갔	-11.4467
▁(2006)	-11.4467
▁먹는다	-11.4467
▁노부나가	-11.4468
로그	-11.4469
▁맞추어	-11.4469
賢	-11.4469
▁삶의	-11.447
exp	-11.447
▁지각	-11.447
▁고소	-11.4471
▁마찰	-11.4473
》...	-11.4473
▁동맹을	-11.4474
업무	-11.4474
첼	-11.4475
목적	-11.4475
▁어릴	-11.4476
▁곤란	-11.4476
cap	-11.4477
시다	-11.4478
▁영화를	-11.4479
ock	-11.4479
off	-11.4483
▁움직이는	-11.4483
당의	-11.4483
▁히어로	-11.4485
주가	-11.4485
▁중도	-11.4485
곽	-11.4487
▁140	-11.4489
▁필터	-11.4489
▁물이	-11.449
▁마감	-11.449
셨	-11.4491
▁Group	-11.4492
▁세워진	-11.4493
▁다나카	-11.4494
▁꺾고	-11.4499
▁알레	-11.45
▁이후부터	-11.4501
▁실패했다	-11.4501
▁수록된	-11.4503
생물	-11.4503
あ	-11.4504
▁산악	-11.4504
딜	-11.4504
▁초래	-11.4505
여름	-11.4507
놓은	-11.4507
SU	-11.4508
▁Ni	-11.4509
識	-11.4509
シ	-11.451
▁보석	-11.4511
▁택시	-11.4512
▁태자	-11.4513
▁강을	-11.4515
▁확실히	-11.4516
о	-11.4516
▁간호사	-11.4521
광장	-11.4522
▁용도	-11.4522
(2000	-11.4523
▁디스플레이	-11.4523
cent	-11.4523
▁특성을	-11.4524
누마	-11.4525
her	-11.4526
보라	-11.4526
▁요청에	-11.4526
바스	-11.4527
▁마음작용	-11.4529
▁Gi	-11.4532
▁막대한	-11.4533
▁발생할	-11.4533
老	-11.4534
▁지지하는	-11.4534
浦	-11.4536
▁°	-11.4537
▁원제	-11.454
▁전해진다	-11.454
▁69	-11.4541
동아	-11.4541
▁기록하고	-11.4542
als	-11.4543
▁At	-11.4543
▁%	-11.4545
▁산성	-11.4545
▁애국	-11.4546
▁(1983	-11.4546
▁경험이	-11.4548
▁혹시	-11.4549
eng	-11.455
랏	-11.455
▁같네요	-11.4551
▁석탄	-11.4552
LO	-11.4552
▁옵션	-11.4553
▁먹고	-11.4553
sy	-11.4557
▁노선은	-11.4558
▁발견한	-11.456
Delta	-11.456
▁교육부	-11.4563
▁있어서는	-11.4563
▁역에서	-11.4563
▁Tri	-11.4564
뱅	-11.4565
▁전속	-11.4565
▁혹	-11.4566
▁부모님	-11.4567
년까지는	-11.4567
스페인	-11.4569
甲	-11.4569
▁라틴	-11.4569
전사	-11.457
▁알라	-11.457
▁섬유	-11.457
~15	-11.4571
차가	-11.4571
▁가능성	-11.4571
▁유아	-11.4572
▁행진	-11.4573
得	-11.4577
敬	-11.4577
▁와중에	-11.4578
회에	-11.4578
▁한국시리즈	-11.4579
▁꺼	-11.4579
▁화려한	-11.458
▁향후	-11.4582
▁모양으로	-11.4585
男	-11.4585
▁그러자	-11.4586
▁노력을	-11.4587
▁탓에	-11.4588
▁지름	-11.4589
▁무산	-11.459
▁경우를	-11.459
인구	-11.4591
▁대외	-11.4591
아일랜드	-11.4592
지휘	-11.4594
▁온천	-11.4595
타이틀	-11.4597
▁적색	-11.4597
▁성공적으로	-11.4597
타수	-11.4598
▁결론	-11.4598
会	-11.4599
▁일으키는	-11.4601
="100"	-11.4601
통제	-11.4602
▁1,2	-11.4602
▁퇴각	-11.4604
▁정밀	-11.4605
▁것인가	-11.4605
lar	-11.4605
▁젖	-11.4606
MO	-11.4606
▁원자로	-11.4606
▁빠진	-11.4606
계급	-11.4606
▁이긴	-11.4609
▁낱말	-11.461
▁해피	-11.4611
▁센다이	-11.4611
▁준결승전	-11.4612
ons	-11.4612
학의	-11.4612
▁그랑프리	-11.4614
▁이어져	-11.4615
▁}}	-11.4618
▁뛰고	-11.4618
▁저택	-11.4618
▁손실	-11.462
▁형성된	-11.462
경상남도	-11.462
▁System	-11.4621
소송	-11.4622
百	-11.4622
▁인격	-11.4623
▁토크	-11.4626
▁일어날	-11.4627
▁것인데	-11.4627
▁크리스토퍼	-11.4629
я	-11.463
▁암호	-11.4633
▁분명	-11.4633
ger	-11.4633
▁뷰	-11.4636
▁유희열	-11.4637
++	-11.4637
▁포도주	-11.4637
▁극복	-11.4638
▁첩	-11.4639
보다도	-11.464
다니	-11.4641
진의	-11.4641
}(\	-11.4641
▁유저	-11.4643
▁유역	-11.4643
게이	-11.4644
계정	-11.4644
▁차장	-11.4644
자치	-11.4645
동과	-11.4646
▁분배	-11.4647
밋	-11.4648
▁있는가	-11.4648
su	-11.4649
상이	-11.465
신경	-11.465
action	-11.465
variant	-11.4651
▁명탐정	-11.4652
▁운행하는	-11.4653
곰	-11.4653
▁공전	-11.4654
▁저명성	-11.4654
▁출신이다	-11.4655
|\	-11.4655
▁프로야구	-11.4656
BO	-11.4658
역이	-11.4658
▁지방에	-11.4658
▁닌자	-11.466
▁탐정	-11.4663
▁!12	-11.4664
챔프	-11.4665
정을	-11.4665
も	-11.4666
▁되었으나	-11.4667
▁슬로바키아	-11.4668
▁해소	-11.4672
och	-11.4672
▁천연	-11.4672
▁동형	-11.4673
▁눈이	-11.4673
б	-11.4675
▁그날	-11.4675
▁내내	-11.4677
れ	-11.4677
▁설치류	-11.4678
▁조직의	-11.4679
▁필요하다고	-11.4679
상에	-11.468
해주는	-11.468
千	-11.4681
▁리치	-11.4684
선과	-11.4686
梁	-11.4686
▁채로	-11.4687
▁position	-11.4688
Revi	-11.4688
▁출연진	-11.469
보안	-11.469
Ha	-11.4691
▁펜싱	-11.4693
▁가능하며	-11.4694
sta	-11.4694
▁까지	-11.4695
▁네덜란드의	-11.4695
▁동사	-11.4697
▁소총	-11.4698
▁한양	-11.47
▁가능하게	-11.47
아래	-11.47
모든	-11.4702
▁머신	-11.4702
▁결혼을	-11.4702
▁동아	-11.4702
▁United	-11.4704
▁조건으로	-11.4704
친다	-11.4705
▁주에	-11.4705
대책	-11.4705
▁제작진	-11.4706
여서	-11.4706
▁크기는	-11.4706
▁납	-11.4706
▁동전	-11.4708
과학기술	-11.4708
론의	-11.471
▁73	-11.471
▁착수	-11.4711
▁관통	-11.4711
▁유령	-11.4711
140	-11.4712
▁해발	-11.4712
▁권유	-11.4712
▁현종	-11.4713
▁가구	-11.4713
스틴	-11.4713
▁발전소	-11.4714
▁설립한	-11.4714
사랑방	-11.4716
▁유교	-11.4716
▁유미	-11.4717
코의	-11.472
▁여운형	-11.4721
Sa	-11.4722
봉사	-11.4723
인사	-11.4724
▁다루고	-11.4725
▁출연자	-11.4725
▁회의에서	-11.4726
지며	-11.4727
▁OF	-11.4727
號	-11.4728
적이다	-11.4728
고등	-11.4728
▁ST	-11.4729
▁몰래	-11.4729
▁우체국	-11.4731
▁상대식	-11.4732
KO	-11.4732
▁금메달	-11.4732
부리	-11.4732
열전	-11.4734
편의	-11.4735
▁해역	-11.4735
▁했습니다	-11.4735
▁운행을	-11.4737
장소	-11.4739
▁정체	-11.474
곡동	-11.474
▁당선되었다	-11.4741
으로서는	-11.4741
▁하나님의	-11.4742
尙	-11.4743
빌리	-11.4745
▁배터리	-11.4748
▁누리	-11.4748
gov	-11.4749
▁빚	-11.4751
▁앨범을	-11.4752
복을	-11.4753
▁규모가	-11.4753
key	-11.4755
▁type	-11.4755
oma	-11.4757
KI	-11.4757
진행	-11.4758
~14	-11.4758
▁1898	-11.4758
▁Dis	-11.476
rs	-11.4761
▁하인리히	-11.4761
▁이메일	-11.4761
▁마주	-11.4761
▁연속으로	-11.4762
▁Inc	-11.4762
▁견제	-11.4763
▁윤보선	-11.4763
▁주장은	-11.4763
進	-11.4763
▁자체는	-11.4766
▁업그레이드	-11.4766
▁계획은	-11.4766
라르	-11.4766
대와	-11.4767
어와	-11.4767
▁원고	-11.4768
반응	-11.477
▁모모	-11.4771
▁토대로	-11.4771
닛	-11.4772
▁알바니아	-11.4772
▁관장	-11.4772
▁평행	-11.4773
▁게이트	-11.4774
▁에미	-11.4775
▁이미지를	-11.4777
▁균형	-11.4779
▁발해	-11.4779
▁여러분	-11.4779
▁졸업한	-11.4779
행성	-11.4781
▁유혹	-11.4782
錫	-11.4783
▁쿄	-11.4783
▁단선	-11.4783
▁관습	-11.4785
▁조사를	-11.4787
▁한성	-11.4791
▁상당수	-11.4792
업자	-11.4793
혔다	-11.4793
설을	-11.4794
▁국어	-11.4795
▁분데스리가	-11.4796
과장	-11.4799
논의	-11.48
▁말리	-11.48
쉽	-11.4801
▁평균자책점	-11.4804
▁English	-11.4805
해지고	-11.4805
▁사람과	-11.4805
▁CO	-11.4805
▁강철	-11.4806
▁편입되었다	-11.4809
수와	-11.4809
▁모친	-11.4809
▁속성	-11.481
이어서	-11.481
전에서는	-11.481
▁양주	-11.4811
란드	-11.4811
▁카를로스	-11.4812
ail	-11.4812
▁오키나와	-11.4814
▁맡게	-11.4814
쿤	-11.4815
자들에게	-11.4816
쿠마	-11.4819
▁잉	-11.482
절차	-11.482
▁메달리스트	-11.482
▁정의할	-11.482
▁브루	-11.4821
▁스틸	-11.4821
▁보드	-11.4821
▁거짓말	-11.4821
▁부과	-11.4823
토트	-11.4823
참여	-11.4823
단에	-11.4825
마에	-11.4825
ding	-11.4826
▁음반이다	-11.4827
방송국	-11.4827
겠지만	-11.4828
9;"|	-11.483
ric	-11.483
▁휴스턴	-11.4831
」,	-11.4832
▁스피	-11.4832
▁끝나고	-11.4833
▁EX	-11.4835
몸	-11.4835
버전	-11.4835
▁싱	-11.4836
▁내용으로	-11.4836
▁선거를	-11.4836
▁박해	-11.4837
▁내부의	-11.4839
▁(12	-11.4841
▁진리	-11.4842
미치	-11.4843
125	-11.4843
▁이틀	-11.4843
▁자치체	-11.4843
曹	-11.4844
▁터보	-11.4845
▁비평가	-11.4846
▁사이를	-11.4847
▁스페인어	-11.4848
▁담배	-11.4848
ef	-11.485
▁주행	-11.485
▁불명	-11.485
▁댄	-11.4851
ney	-11.4851
▁동독	-11.4852
▁브라우저	-11.4853
▁상금	-11.4853
▁올리는	-11.4854
▁86	-11.4855
(2003	-11.4857
▁부른	-11.4858
▁Times	-11.4858
bel	-11.4858
▁크기의	-11.4859
not	-11.4859
鳳	-11.4861
▁장갑	-11.4862
▁프랑스는	-11.4863
▁하니	-11.4863
▁트랜스	-11.4865
▁구출	-11.4865
▁터치	-11.4866
ü	-11.4866
space	-11.4866
▁시선	-11.4866
사이트	-11.4866
▁군산	-11.4867
Di	-11.4867
▁파운드	-11.4868
아과	-11.4869
~16	-11.4869
▁다루	-11.4872
IV	-11.4874
▁부재	-11.4874
▁신중	-11.4877
▁사나이	-11.4878
파르	-11.4879
▁아이피	-11.4881
▁승리로	-11.4881
▁경과	-11.4882
▁사카이	-11.4882
驛	-11.4883
▁초창기	-11.4883
지식	-11.4884
사무	-11.4885
▁결심	-11.4886
▁South	-11.4886
▁명성을	-11.4886
▁밀양	-11.4887
▁내일	-11.4888
▁물체	-11.4889
영은	-11.4891
▁정신적	-11.4892
▁지휘자	-11.4895
론은	-11.4895
▁투표를	-11.4895
▁의병	-11.4896
▁환원	-11.4896
▁마약	-11.4899
zo	-11.4899
▁1.2	-11.4899
레아	-11.49
SO	-11.49
▁전도	-11.4901
▁대회를	-11.4901
▁벗	-11.4902
시부터	-11.4902
▁정도이다	-11.4902
})	-11.4902
▁레닌	-11.4903
▁갈라	-11.4904
서울특별시	-11.4904
紀	-11.4905
▁거둔	-11.4906
▁기수	-11.4909
▁나비	-11.491
▁진출하였다	-11.4911
웨어	-11.4912
▁훈련을	-11.4913
▁복잡	-11.4913
ast	-11.4913
▁우승자	-11.4914
▁아이를	-11.4915
▁코코	-11.4916
▁1899	-11.4917
遠	-11.4917
▁사관	-11.4917
▁인정하지	-11.4922
▁죄를	-11.4922
▁영남	-11.4922
border	-11.4922
▁외국어	-11.4923
ving	-11.4923
▁보일	-11.4924
▁차원에서	-11.4924
수영	-11.4924
텀	-11.4925
▁다니는	-11.4926
▁폭행	-11.4926
한국어	-11.4926
!!5	-11.4926
됐고	-11.4926
▁신인상	-11.4928
▁방식이	-11.4928
▁야마다	-11.4929
짝	-11.493
▁자제	-11.493
▁(1981	-11.493
Se	-11.4933
▁버튼	-11.4933
▁분야에	-11.4935
경남	-11.4936
▁대행	-11.4938
106	-11.4939
▁홍성	-11.494
▁득점을	-11.4941
계와	-11.4942
▁제외하고는	-11.4943
м	-11.4943
▁김원	-11.4943
▁일식	-11.4944
▁첨	-11.4947
▁김규식	-11.4948
▁기습	-11.4949
테이	-11.4949
▁Rock	-11.495
▁코믹스	-11.495
깨	-11.4952
▁중의원	-11.4956
▁계열의	-11.4956
▁비판했다	-11.4956
울산	-11.4956
▁경향	-11.4957
▁든	-11.4958
공식	-11.4958
▁스케이팅	-11.4959
▁고사	-11.496
▁Ac	-11.4962
▁이광	-11.4962
use	-11.4963
ey	-11.4964
▁중간에	-11.4965
▁섬식	-11.4965
▁프로덕션	-11.4965
▁최소한	-11.4965
IST	-11.4966
이하	-11.4966
드의	-11.4966
▁타케	-11.4967
작업	-11.4968
피스	-11.497
할때	-11.4973
▁사카	-11.4973
▁방식의	-11.4975
상은	-11.4976
▁한동안	-11.4977
웠다	-11.4977
▁옛날	-11.4978
▁세계적인	-11.4979
ami	-11.4981
▁구동	-11.4981
▁시마	-11.4984
省	-11.4984
sing	-11.4985
▁도주	-11.4986
▁소행성	-11.4987
▁생겼다	-11.4988
▁1901	-11.4989
문이	-11.4989
▁삼각	-11.499
▁필수	-11.4992
起	-11.4993
▁제트	-11.4993
▁이즈	-11.4994
▁보여주	-11.4994
▁헌터	-11.4995
▁후기의	-11.4995
▁설이	-11.4997
그레	-11.4998
▁도리	-11.4998
쿼	-11.4998
▁박스	-11.4998
▁수천	-11.5001
메르	-11.5001
▁힘든	-11.5002
룩	-11.5003
▁기사를	-11.5003
▁피렌체	-11.5004
▁건물은	-11.5005
▁유정	-11.5006
▁활동하는	-11.5007
▁감독상	-11.5009
gray	-11.501
▁가동	-11.5011
심사	-11.5012
선언	-11.5012
▁도시를	-11.5012
이탈리아	-11.5012
▁헐	-11.5012
▁모두가	-11.5014
▁잠실	-11.5015
▁하버드	-11.5015
(9	-11.5015
▁DC	-11.5016
att	-11.5016
▁Inter	-11.5017
▁앨	-11.5017
▁도움으로	-11.5018
▁코트	-11.5018
實	-11.5018
주의적	-11.5019
san	-11.502
▁현대의	-11.5021
파가	-11.5022
▁조이	-11.5024
▁#000000;	-11.5025
▁Tour	-11.5027
caps	-11.5027
방송사	-11.5028
▁세금	-11.5028
클리	-11.5029
▁전함	-11.5029
曲	-11.503
어머니	-11.5031
▁출연한	-11.5031
▁삼고	-11.5033
▁무려	-11.5033
epsilon	-11.5035
▁부시	-11.5036
▁관광지	-11.5037
▁아비	-11.5037
▁Center	-11.5039
총영사관	-11.5039
▁넥센	-11.504
-1}	-11.5042
▁사거리	-11.5043
▁몰려	-11.5045
▁비유	-11.5046
▁(11)	-11.5046
ks	-11.5048
▁안쪽	-11.5049
▁주장하고	-11.505
화와	-11.5052
▁토론에서	-11.5053
Cat	-11.5053
▁꼴	-11.5053
▁풍경	-11.5053
▁결코	-11.5055
▁다큐	-11.5056
123	-11.5058
▁Mnet	-11.5058
▁미얀마	-11.5061
▁옷을	-11.5062
▁없으나	-11.5062
ess	-11.5062
▁박용	-11.5062
레이터	-11.5062
나라의	-11.5063
레이트	-11.5063
達	-11.5064
▁지음	-11.5065
샨	-11.5067
▁내고	-11.5067
▁(2005)	-11.5069
조치	-11.507
▁히사	-11.507
남면	-11.5072
▁Ne	-11.5072
▁Com	-11.5073
나르	-11.5073
군에서	-11.5073
▁호흡	-11.5073
명칭	-11.5073
▁고안	-11.5074
1.5	-11.5074
▁과일	-11.5075
▁데뷔전을	-11.5078
▁빌려	-11.5078
▁팽	-11.5079
▁비전	-11.5079
대군	-11.5079
="1"|	-11.5079
▁통행	-11.508
▁프랑스군	-11.5082
▁1.5	-11.5083
▁오염	-11.5084
발매	-11.5084
▁대변인	-11.5085
▁조선시대의	-11.5085
▁기념물	-11.5086
▁문화를	-11.5086
엔터테인먼트	-11.5087
▁디스	-11.5088
▁조리	-11.5091
뮤	-11.5092
터스	-11.5093
▁로빈	-11.5093
러브	-11.5093
키아	-11.5096
라니	-11.5096
▁펼쳐	-11.5097
▁공백	-11.5098
니카	-11.5099
▁장사	-11.51
▁폭격	-11.5101
▁기록하여	-11.5102
mp	-11.5104
▁실체	-11.5105
▁100%	-11.5107
▁임상	-11.5107
▁use	-11.5109
▁앵커	-11.511
닷컴	-11.5112
▁LIVE	-11.5113
음에도	-11.5113
놓고	-11.5114
▁상해	-11.5114
차장	-11.5114
▁조달	-11.5115
▁무술	-11.5116
▁기술이	-11.5117
실장	-11.5117
▁성모	-11.5118
▁되찾	-11.512
▁사인	-11.5121
▁1894	-11.5121
▁구조물	-11.5121
▁보스니아	-11.5121
ora	-11.5122
디지털	-11.5124
▁유언	-11.5124
▁딜	-11.5125
▁지방에서	-11.5125
▁지식을	-11.5126
▁게시	-11.5126
▁아들을	-11.5127
낸다	-11.5129
つ	-11.513
▁몬트리올	-11.513
派	-11.5132
▁용어는	-11.5135
▁성균관	-11.5135
콕	-11.5136
감사	-11.5136
▁Du	-11.5137
▁유카	-11.5138
將	-11.5138
▁체조	-11.5138
옌	-11.5139
▁만나게	-11.514
富	-11.5141
▁노태우	-11.5141
з	-11.5141
▁공신	-11.5142
▁<<	-11.5142
▁화살	-11.5143
ade	-11.5143
시노	-11.5145
▁마찬가지	-11.5147
▁리비아	-11.5147
だ	-11.5147
111	-11.5148
▁두루	-11.5149
▁드라마이다	-11.515
▁카츠	-11.5153
▁조조	-11.5154
è	-11.5156
면을	-11.5157
▁조금씩	-11.5157
▁have	-11.5157
▁전라도	-11.5159
가능	-11.5159
▁Paul	-11.516
점은	-11.5161
▁미카	-11.5163
▁GO	-11.5163
미국의	-11.5164
▁에스파냐	-11.5164
▁익스프레스	-11.5164
ob	-11.5165
▁상담	-11.5165
▁파업	-11.5165
▁조약을	-11.5165
戰	-11.5167
▁후한	-11.5167
▁KO	-11.5168
됐	-11.517
ship	-11.5175
~9	-11.5176
▁의뢰	-11.5176
▁이규	-11.5176
목소리	-11.5177
▁라트비아	-11.518
▁정성	-11.518
▁벌금	-11.518
투어	-11.5182
▁책은	-11.5182
math	-11.5183
以	-11.5184
延	-11.5184
rie	-11.5185
▁공인	-11.5186
▁매직	-11.5187
▁굽	-11.5187
▁항공모함	-11.5188
win	-11.5188
▁신정	-11.5188
=50	-11.5189
pro	-11.5189
DC	-11.519
▁후보에	-11.5191
석이	-11.5191
▁언론인	-11.5192
▁땅에	-11.5193
재산	-11.5193
WA	-11.5194
▁덴마크의	-11.5194
解	-11.5196
▁웰	-11.5196
ona	-11.5197
▁플러스	-11.5198
▁룰	-11.5198
▁준수	-11.5198
▁언어로	-11.5199
▁헬로	-11.5201
▁MA	-11.5202
ski	-11.5202
▁비율	-11.5204
▁나눠	-11.5204
▁캄보디아	-11.5207
▁라이온스	-11.5209
▁02.	-11.5209
▁어원	-11.521
▁마르코	-11.5212
▁바꾸는	-11.5212
yr	-11.5217
▁목적은	-11.5217
▁정보가	-11.5219
동면	-11.5221
▁스크	-11.5222
▁위와	-11.5224
▁목록은	-11.5224
▁중앙일보	-11.5224
duc	-11.5225
▁Lu	-11.5225
▁세로	-11.5226
▁Ba	-11.5226
▁프로토콜	-11.5228
▁돌아갔다	-11.5228
Ho	-11.5229
▁프랑스와	-11.5229
對	-11.5231
▁집으로	-11.5231
▁언급한	-11.5231
▁제시한	-11.5232
▁마나	-11.5233
▁콩고	-11.5233
▁당원	-11.5234
▁이즈미	-11.5236
▁독서	-11.5236
▁세계에	-11.5237
▁최영	-11.5238
▁초과	-11.5239
▁학교를	-11.5239
▁ABC	-11.5239
관은	-11.5241
ula	-11.5241
▁트럼프	-11.5242
▁되돌아	-11.5242
ミ	-11.5242
像	-11.5242
시키지	-11.5242
▁하부	-11.5242
▁중학교이다	-11.5244
▁협주곡	-11.5245
▁상태이다	-11.5245
점으로	-11.5248
▁연평균	-11.5248
▁양상	-11.5249
슬러	-11.5249
주고	-11.525
ake	-11.525
▁호환	-11.5251
▁전체의	-11.5252
번역	-11.5252
▁부르며	-11.5252
▁남원	-11.5255
table	-11.5255
▁옌	-11.5256
▁타구	-11.5256
적으로는	-11.5256
▁(2003)	-11.5257
즈의	-11.5257
▁소금	-11.5258
▁기생	-11.5258
쳤고	-11.5258
talk	-11.5258
▁글씨는	-11.5261
▁얻고	-11.5262
▁친척	-11.5263
▁이에야스	-11.5263
▁대학에서	-11.5263
▁소속되어	-11.5263
▁표명	-11.5265
▁우라	-11.5267
▁명령어	-11.5267
▁치즈	-11.5267
▁생각할	-11.5268
▁험	-11.5269
▁똑같은	-11.527
▁위임	-11.5271
館	-11.5271
ean	-11.5272
▁로그	-11.5274
▁other	-11.5275
▁장려	-11.5275
파는	-11.5278
▁요시다	-11.5278
▁엔진을	-11.5279
▁84	-11.5279
cat	-11.5279
▁반성	-11.528
160	-11.5282
▁추이	-11.5284
모를	-11.5284
▁거점	-11.5284
보기	-11.5285
▁뒤에는	-11.5285
▁멸종	-11.5286
г	-11.5288
석은	-11.5289
!!6	-11.529
▁장기간	-11.529
흡	-11.529
Th	-11.5291
내는	-11.5291
▁나섰다	-11.5292
)』	-11.5293
▁지상파	-11.5294
티브	-11.5294
▁때때로	-11.5295
▁찰리	-11.5296
▁말하였다	-11.5297
아의	-11.5297
▁상사	-11.5299
RT	-11.53
투데이	-11.53
▁조례	-11.53
Blue	-11.5301
▁부제	-11.5303
게이트	-11.5303
▁문화방송	-11.5305
헨	-11.5305
쇄	-11.5308
▁참여하는	-11.5309
▁무어	-11.531
시까지	-11.531
▁제이슨	-11.531
位	-11.5312
▁[0	-11.5315
▁전투에	-11.5316
▁무비	-11.5316
▁뛰어나	-11.5317
겠죠	-11.5321
▁믿고	-11.5321
메이지	-11.5323
궤	-11.5324
▁임원	-11.5324
북면	-11.5324
ique	-11.5327
버트	-11.5327
표준	-11.5328
▁데이빗	-11.533
▁연관	-11.533
▁몰리	-11.5331
▁낼	-11.5331
▁규정에	-11.5331
▁어두운	-11.5332
▁이노우에	-11.5333
시카	-11.5334
▁연구가	-11.5335
1995	-11.5335
count	-11.5337
DVD	-11.5339
▁노조	-11.534
▁이것	-11.534
학년도	-11.5341
dis	-11.5342
▁꼬마	-11.5342
▁다이아몬드	-11.5343
▁속도가	-11.5343
▁부르고	-11.5344
▁형상	-11.5344
상에서	-11.5344
▁뛰어	-11.5344
▁정부와	-11.5346
▁곡으로	-11.5346
▁내륙	-11.5347
▁부분에서	-11.5349
트가	-11.5349
▁Institute	-11.535
진이	-11.535
▁조세	-11.535
▁세우	-11.535
▁만났다	-11.5351
(2017	-11.5353
STER	-11.5353
▁출산	-11.5354
▁득	-11.5355
▁사고가	-11.5356
▁OCN	-11.5356
▁연예	-11.5358
▁금액	-11.5358
▁믿	-11.536
▁시작해	-11.5361
▁멜로디	-11.5361
▁기타리스트	-11.5362
(<	-11.5362
▁관련한	-11.5362
▁Air	-11.5364
▁Heart	-11.5364
Na	-11.5364
▁새끼	-11.5365
▁배우자	-11.5365
▁핑크	-11.5365
▁알려지지	-11.5365
故	-11.5365
▁십자가	-11.5369
Or	-11.537
▁약화	-11.5372
hr	-11.5372
▁화해	-11.5372
▁정재	-11.5372
▁기준이	-11.5372
1000	-11.5373
▁콘크리트	-11.5373
▁둘러싼	-11.5374
▁천국	-11.5374
▁측근	-11.5374
▁권장	-11.5375
2.5	-11.5375
▁통폐합	-11.5377
▁미라	-11.5377
번을	-11.5377
▁호랑이	-11.5378
ッ	-11.5378
▁누적	-11.5379
▁무슬림	-11.5379
▁지미	-11.538
皇	-11.5382
▁프랑수아	-11.5382
▁드라이버	-11.5383
▁지적했다	-11.5387
▁법무	-11.5388
▁무소속	-11.5388
▁그곳	-11.5389
▁일본이	-11.539
tz	-11.539
인가요	-11.5391
Cl	-11.5391
▁상동	-11.5391
봐	-11.5392
▁탈환	-11.5392
▁인구의	-11.5392
▁돼지	-11.5392
▁밀러	-11.5393
▁단식	-11.5393
0.0	-11.5393
▁처음부터	-11.5394
▁샹	-11.5394
▁비례	-11.5394
▁형태가	-11.5395
▁물러나	-11.5395
▁105	-11.5396
▁니콜라	-11.5397
▁명예의	-11.5398
▁개발을	-11.5398
파를	-11.5398
serv	-11.5399
郎	-11.54
석의	-11.54
▁의거	-11.54
▁연봉	-11.5401
▁나주	-11.5402
비디오	-11.5402
푸스	-11.5404
▁돌아	-11.5405
집행	-11.5406
▁토시	-11.5407
▁신념	-11.5409
▁받기도	-11.5409
(2016	-11.5409
▁we	-11.541
aka	-11.541
▁조인	-11.5412
샐러맨더	-11.5413
▁First	-11.5414
▁・	-11.5416
지면	-11.5418
="25"|	-11.5418
▁일찍이	-11.542
light	-11.542
▁이장	-11.5421
▁야생	-11.5421
▁잔류	-11.5421
▁후배	-11.5422
▁오기	-11.5422
▁명백한	-11.5422
tel	-11.5422
▁나열	-11.5423
▁일시적으로	-11.5423
沙	-11.5424
졌지만	-11.5424
▁황태자	-11.5425
▁북방	-11.5426
것으로	-11.5426
그러	-11.5428
▁일생	-11.5428
아니	-11.5428
▁센서	-11.5429
미니	-11.5431
▁마라	-11.5433
▁끼	-11.5434
▁중시	-11.5436
▁Girl	-11.5436
▁플래시	-11.5438
GB	-11.5438
▁과정에	-11.5439
-0	-11.5439
시나	-11.5439
으려	-11.544
▁알지	-11.5441
암리	-11.5441
▁바꾸었다	-11.5442
RAM	-11.5442
ban	-11.5443
nis	-11.5444
▁반경	-11.5446
▁나가사키	-11.5448
개월간	-11.545
▁각국	-11.545
▁사용하며	-11.5452
▁헨	-11.5452
ose	-11.5453
▁특기	-11.5453
▁이마	-11.5454
▁원나라	-11.5454
작은	-11.5455
▁국가에서	-11.5455
界	-11.5456
▁북쪽에	-11.5457
▁주장에	-11.5459
▁장편	-11.5459
▁속도를	-11.5459
▁사망자	-11.546
▁극히	-11.5461
워스	-11.5461
▁전투가	-11.5462
▁입장에서	-11.5462
▁참고문헌	-11.5463
스탄	-11.5464
▁이상으로	-11.5464
▁강제로	-11.5467
▁알제리	-11.5468
▁교섭	-11.5468
▁mi	-11.547
▁용기	-11.5472
ves	-11.5472
신을	-11.5472
▁조류	-11.5473
rangle	-11.5473
▁가라	-11.5474
▁이명	-11.5477
TP	-11.5477
▁열고	-11.5477
▁포도	-11.5478
▁근거를	-11.548
▁관람	-11.548
▁학생들이	-11.5482
회에서	-11.5482
▁대폭	-11.5482
▁피난	-11.5482
▁고양시	-11.5482
▁adidas	-11.5483
~12	-11.5483
▁보호를	-11.5483
▁동상	-11.5483
▁list	-11.5485
▁1902	-11.5485
▁르네상스	-11.5486
ニ	-11.5486
▁실험을	-11.5486
히메	-11.5487
ities	-11.549
▁걸리	-11.5491
▁얻는다	-11.5493
ire	-11.5494
▁작품이	-11.5495
▁마르크스	-11.5495
▁속도로	-11.5496
▁표본	-11.5496
▁낳았다	-11.5497
▁아이스	-11.5497
▁던져	-11.5497
▁중국인	-11.5497
▁버지니아	-11.5497
▁좋아한다	-11.5498
▁(1979	-11.5498
▁Top	-11.5499
▁형식의	-11.55
▁부리	-11.55
許	-11.5501
▁출가	-11.5502
▁단역	-11.5503
▁지역에서는	-11.5503
佐	-11.5504
탈삼진	-11.5507
▁서식	-11.5507
▁농도	-11.5507
▁서열	-11.5508
▁모양을	-11.5508
▁탈삼진	-11.551
▁데뷔했다	-11.5511
▁수평	-11.5513
투수	-11.5513
숙종	-11.5514
0000;"|	-11.5514
크라	-11.5514
▁Mac	-11.5515
▁자음	-11.5515
▁퇴역	-11.5515
▁78	-11.5515
▁박경	-11.5516
영웅	-11.5518
로봇	-11.5521
▁호크스	-11.5522
타마	-11.5523
▁개찰구	-11.5524
확인	-11.5524
lam	-11.5524
려면	-11.5524
SL	-11.5525
하트	-11.5527
▁삼국	-11.5528
ular	-11.5528
▁친일파	-11.5528
▁inter	-11.5529
남부	-11.5529
▁어려워	-11.5531
Go	-11.5531
▁대학생	-11.5532
eri	-11.5532
명에	-11.5533
Ka	-11.5533
예프	-11.5533
▁누구나	-11.5534
▁원래의	-11.5535
001	-11.5537
▁괴물	-11.5537
▁교원	-11.5537
OT	-11.5538
Ar	-11.5539
熙	-11.5539
패로	-11.5539
エ	-11.554
cal	-11.554
▁빨간	-11.554
속의	-11.5541
▁충격을	-11.5542
▁빗	-11.5543
▁민영	-11.5544
▁테이블	-11.5544
▁중심이	-11.5545
하의	-11.5545
詩	-11.5546
▁Ø	-11.5546
▁실망	-11.5546
▁미소	-11.5546
▁발견했다	-11.5547
플러	-11.5547
1994	-11.5548
▁진출에	-11.5549
▁운동이	-11.555
▁수습	-11.5552
▁(2007)	-11.5552
▁우주선	-11.5552
진은	-11.5553
3">	-11.5554
▁발현	-11.5556
가며	-11.5556
CBETA	-11.5557
▁특이	-11.5559
▁SIGN	-11.5559
▁황해도	-11.5559
▁나이지리아	-11.556
▁하느님	-11.556
▁프리큐어	-11.5561
▁최강	-11.5561
mit	-11.5562
▁로저	-11.5563
▁방식은	-11.5564
▁중이던	-11.5565
임에도	-11.5565
▁성질을	-11.5566
▁카와	-11.5567
▁우승팀	-11.5567
▁노드	-11.5568
명령	-11.557
▁자이	-11.5573
▁메일	-11.5575
▁앨범은	-11.5577
▁CBS	-11.5579
class	-11.5583
보리	-11.5583
▁에이지	-11.5584
▁무대에	-11.5585
▁엘리베이터	-11.5585
▁사무관	-11.5588
▁치렀다	-11.5592
▁샌	-11.5592
▁차종	-11.5592
▁야마구치	-11.5592
▁정책과	-11.5593
평리	-11.5594
▁제네바	-11.5597
▁Au	-11.5599
val	-11.56
▁거리가	-11.5602
▁전압	-11.5602
▁폼	-11.5606
▁안성	-11.5607
can	-11.5609
▁조건이	-11.5609
▁인민군	-11.5609
▁개최되었다	-11.5612
▁아들이다	-11.5613
Love	-11.5614
등에	-11.5615
Leedors	-11.5615
▁Open	-11.5615
빌딩	-11.5615
았던	-11.5615
▁와인	-11.5615
▁언어를	-11.5616
加	-11.5617
article	-11.5618
▁본격적인	-11.5619
▁serif	-11.5619
▁직접적으로	-11.5619
▁내외	-11.562
▁전하	-11.5621
▁재무	-11.5622
▁도미	-11.5622
▁Red	-11.5623
▁기록하는	-11.5625
▁인사들	-11.5625
奉	-11.5626
▁불꽃	-11.5628
(11	-11.5628
쟁	-11.5628
▁나이가	-11.5629
▁에우	-11.5629
받지	-11.563
▁팜	-11.563
▁안토니오	-11.5631
▁팽창	-11.5632
▁81	-11.5633
▁경신	-11.5635
▁고조	-11.5636
▁아사달	-11.5637
▁트라	-11.5638
tis	-11.564
▁오렌지	-11.5641
gg	-11.5645
▁당주	-11.5649
▁광저우	-11.5649
▁OVA	-11.5649
예를	-11.5649
▁청사	-11.565
▁아이슬란드	-11.5651
▁엑	-11.5652
bl	-11.5652
▁LOVE	-11.5653
▁미드필더	-11.5653
토키	-11.5654
▁직통	-11.5656
▁Ab	-11.5657
▁않았다고	-11.5658
▁74	-11.5658
▁군대가	-11.5659
香	-11.5663
線	-11.5663
榮	-11.5663
치카	-11.5663
햄	-11.5664
▁오이	-11.5664
▁Die	-11.5666
▁적합한	-11.5669
▁파일을	-11.567
헝가리	-11.5671
보르	-11.5671
▁다이노스	-11.5671
▁빔	-11.5672
▁1903	-11.5672
Do	-11.5672
▁입원	-11.5673
▁더비	-11.5673
102	-11.5673
▁권한이	-11.5673
▁자세히	-11.5674
▁태그	-11.5677
이전	-11.5678
처분	-11.5678
▁때문입니다	-11.5678
▁大	-11.5678
▁동력	-11.568
▁분쟁이	-11.568
▁고토	-11.5682
▁테라	-11.5682
▁길게	-11.5684
右	-11.5684
果	-11.5684
▁승부차기	-11.5684
▁후쿠	-11.5685
삼국지	-11.5685
▁교수로	-11.5687
판매	-11.5687
▁기여했다	-11.5688
▁출전했다	-11.5688
▁통보	-11.5688
▁노동당	-11.5688
▁20%	-11.5689
경의	-11.5689
▁되었지만	-11.569
alt	-11.569
PL	-11.5691
▁무상	-11.5691
니어	-11.5692
나비	-11.5693
해수욕장	-11.5696
▁왕복	-11.5696
▁MTV	-11.5698
▁미국이	-11.5699
▁(1982	-11.57
Be	-11.57
설계	-11.5701
ug	-11.5701
해주	-11.5701
▁about	-11.5702
괄	-11.5702
▁아레나	-11.5702
▁루터	-11.5702
아프리카	-11.5703
104	-11.5703
삼국사기	-11.5703
▁촌이	-11.5705
▁사상을	-11.5706
▁배달	-11.5707
▁휴전	-11.5707
▁Cambridge	-11.5708
▁동료들	-11.5708
▁중심기압	-11.5708
▁메시	-11.571
▁참가하여	-11.5711
處	-11.5711
▁자신도	-11.5714
atus	-11.5714
주택	-11.5716
▁가신	-11.5717
▁난징	-11.5717
▁한미	-11.5717
▁NBA	-11.5718
cr	-11.5718
장비	-11.5719
▁Ko	-11.572
▁성남시	-11.5722
▁Video	-11.5723
▁넣고	-11.5723
▁건축가	-11.5724
▁한국전쟁	-11.5726
▁정자	-11.5726
反	-11.5727
▁이처럼	-11.5728
学	-11.5728
▁정사	-11.5729
▁알렉스	-11.5729
▁칭찬	-11.5729
▁세르	-11.5731
▁(1):	-11.5732
자기	-11.5733
▁지능	-11.5733
적이며	-11.5733
▁전에는	-11.5734
청사	-11.5735
▁생성된	-11.5735
▁토미	-11.5737
▁넘겨	-11.5738
▁보좌	-11.5738
▁윤리	-11.5739
바타	-11.5739
▁오피스	-11.5739
▁Good	-11.574
졌는데	-11.5741
▁August	-11.5741
av	-11.5741
▁암컷	-11.5742
▁출시된	-11.5742
]]	-11.5742
▁Album	-11.5742
▁리버	-11.5743
▁간격	-11.5748
火	-11.5748
▁플로리다	-11.5748
▁특유의	-11.5748
à	-11.5749
▁주립	-11.5751
▁호리	-11.5753
▁유력	-11.5753
▁체력	-11.5753
▁서울에서	-11.5754
졌으나	-11.5754
▁획득했다	-11.5754
▁교육과정	-11.5755
▁번식	-11.5755
▁사망하고	-11.5756
▁치르	-11.5756
틀리	-11.5757
kh	-11.5758
__	-11.5758
정권	-11.5758
▁살던	-11.5759
▁가려	-11.5759
105	-11.576
였다고	-11.5761
됐으며	-11.5761
aceae	-11.5761
▁!13	-11.5762
!!7	-11.5763
▁King	-11.5763
bin	-11.5763
▁넘어가	-11.5764
▁Oxford	-11.5767
ull	-11.5767
▁다이스케	-11.5768
톡	-11.5768
▁해변	-11.5769
▁남아있다	-11.577
▁획득하였다	-11.5772
▁1889	-11.5772
크는	-11.5773
▁소모	-11.5774
▁요소를	-11.5774
▁죽이고	-11.5775
▁체제를	-11.5776
▁가마	-11.5776
▁어려움을	-11.5776
롭	-11.5778
냉	-11.5778
植	-11.5779
▁89	-11.5779
▁상장	-11.578
▁당일	-11.5781
집합	-11.5782
▁차이점	-11.5783
▁쌓아	-11.5784
lis	-11.5786
▁외계	-11.5787
▁남쪽에	-11.5788
中學校	-11.5788
▁서재필	-11.5788
흠	-11.5788
▁입주	-11.5789
▁보르	-11.5789
론적	-11.5793
▁예언	-11.5793
▁모방	-11.5794
psi	-11.5795
헤드	-11.5798
▁하마	-11.58
병을	-11.5801
지아	-11.5801
▁인재	-11.5802
姜	-11.5803
ition	-11.5804
조각	-11.5805
^2}	-11.5805
▁시절부터	-11.5805
▁맞이	-11.5806
▁트리플	-11.5806
도어	-11.5806
度	-11.5806
위안	-11.5806
▁배후	-11.5807
▁때로는	-11.5808
▁선언했다	-11.5808
당하고	-11.5809
▁이별	-11.581
-22	-11.5811
▁주지사	-11.5811
▁자아	-11.5816
외교	-11.5817
▁높이기	-11.5818
▁과연	-11.5819
▁에디션	-11.5819
▁떨어지는	-11.582
▁교양	-11.582
▁동물의	-11.582
▁따른다	-11.5821
▁만일	-11.5822
▁안되는	-11.5823
ological	-11.5824
▁북위	-11.5824
▁but	-11.5825
▁남극	-11.5825
▁포로	-11.5825
▁퍼져	-11.5826
▁CM	-11.5826
▁성의	-11.5827
났다	-11.583
▁현대자동차	-11.583
>>	-11.583
▁내린	-11.5831
▁이슬람교	-11.5832
위는	-11.5834
센트	-11.5836
▁소문	-11.5837
직원	-11.5837
▁용인시	-11.5839
▁군대는	-11.5839
졌	-11.584
▁아역	-11.584
▁신라의	-11.584
▁프레임	-11.5841
▁각자	-11.5842
▁했을	-11.5842
▁의결	-11.5843
次	-11.5843
▁학교에서	-11.5843
▁운동의	-11.5844
교구	-11.5844
▁당대	-11.5845
▁님의	-11.5845
▁1890	-11.5845
▁상점	-11.5846
ace	-11.5846
▁인근에	-11.5846
▁87	-11.5847
다카	-11.5848
▁단기	-11.5849
▁States	-11.5849
形	-11.5849
▁길이가	-11.585
▁프리미엄	-11.5851
▁신원	-11.5851
플리	-11.5851
▁누르	-11.5851
▁필요는	-11.5851
▁극단	-11.5853
des	-11.5854
▁차단이	-11.5855
▁담긴	-11.5856
▁Act	-11.5856
▁스크린	-11.5856
▁진도	-11.5856
▁진지	-11.5857
▁최정	-11.5857
1015	-11.5858
▁나를	-11.5858
▁어찌	-11.5858
동초등학교	-11.5858
그램	-11.5859
▁별의	-11.586
▁창업	-11.5862
륙	-11.5864
▁Song	-11.5864
▁프랑크푸르트	-11.5865
▁정해진	-11.5865
연속	-11.5865
▁그중	-11.5866
▁판결을	-11.5867
▁프로그램의	-11.5867
끈	-11.5868
:#000000">	-11.5868
푸르	-11.5868
▁없으면	-11.5868
▁강사	-11.587
▁노동자들	-11.587
▁독일군	-11.587
▁나라에서	-11.5872
어린이	-11.5872
▁객체	-11.5874
▁폐위	-11.5876
▁기울	-11.5877
▁조수	-11.5878
▁교통국	-11.5879
CI	-11.5879
롯데	-11.5882
▁켈리	-11.5884
▁여사	-11.5885
▁이적했다	-11.5886
▁Wikipedia	-11.5886
아는	-11.5887
정은	-11.5887
▁SE	-11.5888
!!8	-11.5888
ett	-11.5888
TC	-11.5889
▁간사이	-11.5889
手	-11.5889
▁승리한	-11.5889
▁보이스	-11.5891
신이	-11.5891
GO	-11.5892
미쓰	-11.5892
▁적지	-11.5893
▁재산을	-11.5893
+1}	-11.5893
위성	-11.5896
▁되었을	-11.5896
질을	-11.5897
▁용서	-11.5897
▁같아	-11.5898
운행	-11.5899
▁주사	-11.59
▁March	-11.59
▁실질적으로	-11.5903
레인저	-11.5905
크스	-11.5908
▁50%	-11.5909
▁세라	-11.5909
gold	-11.591
▁일에	-11.5911
▁봉해졌다	-11.5913
▁중위	-11.5913
NK	-11.5913
쿠르	-11.5914
▁입체	-11.5914
▁위키백과가	-11.5915
▁그다지	-11.5916
오스트레일리아	-11.5917
컴퓨터	-11.5917
▁폭로	-11.5917
▁철도의	-11.5918
tre	-11.5919
▁(2004)	-11.5919
▁데스	-11.5919
가르	-11.5919
NN	-11.592
구와	-11.5922
▁요크	-11.5923
▁약력	-11.5925
▁실용	-11.5925
▁현행	-11.5926
品	-11.5927
▁끝이	-11.5927
▁배려	-11.5929
리즘	-11.5929
▁쓰인	-11.5929
▁(1980	-11.5929
▁Hu	-11.593
▁충전	-11.593
소스	-11.593
▁Web	-11.5932
팩	-11.5933
▁SO	-11.5933
▁†	-11.5933
▁임정	-11.5934
▁병기	-11.5935
御	-11.5936
men	-11.5936
해군	-11.5936
류를	-11.5936
▁(2008)	-11.5937
▁독일인	-11.5937
▁독일에서	-11.5937
파이	-11.5937
피안타	-11.5937
▁청산	-11.5939
▁않다고	-11.5942
▁시외버스	-11.5942
해보	-11.5943
▁자기장	-11.5943
▁지어진	-11.5943
▁며느리	-11.5944
족이	-11.5945
경향신문	-11.5945
▁스트레스	-11.5946
업을	-11.5946
▁프랑	-11.5946
년대부터	-11.5948
▁주거	-11.5949
/4	-11.5951
▁결과에	-11.5951
目	-11.5951
▁가군	-11.5953
▁단행본	-11.5953
품을	-11.5953
용의	-11.5953
▁에티오피아	-11.5953
▁재난	-11.5954
(2)	-11.5955
▁문화의	-11.5955
▁양키스	-11.5955
119	-11.5958
▁소울	-11.5958
bs	-11.5958
특히	-11.596
▁라마	-11.5961
能	-11.5961
▁사용법	-11.5962
▁향년	-11.5962
▁해군의	-11.5963
▁기간에	-11.5963
▁시바	-11.5964
▁한국영화	-11.5964
▁비슷하게	-11.5964
▁Don	-11.5965
▁진군	-11.5966
▁Map	-11.5966
▁자세	-11.5967
목록	-11.5968
let	-11.5969
▁물의	-11.5969
雄	-11.597
л	-11.5971
▁92	-11.5973
▁느낌	-11.5975
▁궁정	-11.5976
▁매력	-11.5976
마음	-11.5977
콘서트	-11.5977
크리	-11.5979
湖	-11.5979
入	-11.598
▁테이	-11.598
▁어른	-11.5983
▁목표를	-11.5984
▁AM	-11.5984
▁있었	-11.5986
▁다르	-11.5986
sky	-11.5987
▁IS	-11.5987
▁경기에서는	-11.5989
▁섭정	-11.5989
▁부적절한	-11.599
▁프로그램은	-11.599
▁(12)	-11.599
▁보여주었다	-11.5991
▁trans	-11.5992
져서	-11.5992
玄	-11.5992
▁리나	-11.5993
▁Way	-11.5994
▁피로	-11.5996
▁기록에	-11.5998
▁지정되어	-11.5998
▁일본과	-11.5999
▁내정	-11.6001
▁비극	-11.6001
굿	-11.6002
▁Research	-11.6002
▁1897	-11.6005
▁헤어	-11.6005
▁대성	-11.6005
▁베어	-11.6005
▁MP	-11.6005
▁원조	-11.6006
ji	-11.6006
▁여행을	-11.6007
▁링컨	-11.6008
의학	-11.6009
▁ad	-11.6009
▁책봉	-11.601
▁계정이	-11.601
▁뉴턴	-11.6012
정이	-11.6012
▁교과서	-11.6012
▁분기	-11.6012
▁특별기획	-11.6012
▁일본에서는	-11.6013
위와	-11.6014
있으며	-11.6016
▁진급	-11.6016
▁국소	-11.6018
▁슬로베니아	-11.6021
▁일가	-11.6021
▁공산	-11.6021
인증	-11.6023
▁나타낼	-11.6023
▁방패	-11.6024
tvN	-11.6025
▁둥	-11.6025
▁::::::	-11.6026
ford	-11.6026
암동	-11.6027
▁적다	-11.6027
book	-11.603
Ra	-11.603
oon	-11.603
▁지키	-11.603
문과	-11.6031
▁부자	-11.6032
藤	-11.6032
외과	-11.6033
▁아버지와	-11.6034
▁창의	-11.6034
궤도	-11.6035
▁여덟	-11.6036
▁조영	-11.6037
▁함정	-11.6037
▁병행	-11.6038
희의	-11.6041
부르	-11.6041
지오	-11.6041
▁뒤인	-11.6041
호선의	-11.6043
▁대피	-11.6044
▁세균	-11.6045
▁겐지	-11.6046
공개	-11.6047
▁들어오	-11.6053
ε	-11.6055
kin	-11.6055
빗	-11.6055
▁지역과	-11.6056
카스	-11.6056
▁연구원	-11.6057
▁DS	-11.6058
楊	-11.6058
주와	-11.6058
▁재검토	-11.6058
▁넣었다	-11.6063
▁후방	-11.6064
▁사용될	-11.6065
무늬	-11.6065
VE	-11.6067
다시	-11.6067
=50|	-11.6068
▁기업의	-11.6068
출신	-11.6069
▁출전해	-11.6069
result	-11.6072
▁삼촌	-11.6073
토모	-11.6074
민의	-11.6074
치오	-11.6075
▁대의원	-11.6075
▁멈추	-11.6076
▁교수는	-11.6076
▁달러를	-11.6076
▁긍정적인	-11.6077
▁적고	-11.6077
Yoon	-11.6079
▁뿔	-11.6079
▁무신	-11.608
▁배를	-11.6081
▁아래로	-11.6082
▁아니라는	-11.6082
군수	-11.6083
伊	-11.6083
평균	-11.6084
▁문인	-11.6084
토미	-11.6085
▁놓여	-11.6087
▁비가	-11.6088
LS	-11.6088
▁이전까지	-11.609
▁이루었다	-11.609
▁李	-11.6091
▁Dr	-11.6091
;\	-11.6092
▁경찰관	-11.6092
▁초점을	-11.6093
BB	-11.6093
cept	-11.6095
All	-11.6096
▁딱	-11.6098
▁체중	-11.61
순서	-11.6101
데요	-11.6101
▁있었을	-11.6101
▁전념	-11.6101
▁분들이	-11.6102
▁국가를	-11.6102
▁제안을	-11.6102
비행	-11.6103
▁코우	-11.6103
▁입당	-11.6104
for	-11.6105
▁서북	-11.6105
て	-11.6106
▁Da	-11.6106
▁삼진	-11.6106
▁한명	-11.6107
▁자문	-11.6107
!!10	-11.6107
▁중순	-11.6108
즌	-11.6108
주년을	-11.6109
춤	-11.6109
▁짓고	-11.6109
▁한다면	-11.6109
▁빨간색	-11.611
ι	-11.611
▁치세	-11.6113
▁모델은	-11.6115
▁플레이스테이션	-11.6115
field	-11.6117
야만	-11.6118
▁절차를	-11.6121
▁성향	-11.6122
▁title	-11.6122
▁독일은	-11.6123
▁중심의	-11.6123
마키	-11.6123
▁송나라	-11.6124
증권	-11.6125
▁타이베이	-11.6126
▁음료	-11.6127
▁않았으나	-11.6128
▁건너가	-11.6128
얄	-11.6129
▁조별리그	-11.6129
▁화제가	-11.613
▁지내	-11.6131
▁아무리	-11.6131
▁면허	-11.6133
&\	-11.6133
ister	-11.6133
심이	-11.6134
훈장	-11.6134
무스	-11.6135
▁고르	-11.6135
▁God	-11.6136
車	-11.6137
▁싶다	-11.6138
▁막내	-11.6138
부원군	-11.6139
▁공자	-11.614
▁중량	-11.614
▁조직을	-11.6141
▁목격	-11.6143
▁않아서	-11.6143
{1}{	-11.6144
▁개념은	-11.6148
▁법을	-11.6148
▁수원시	-11.6148
ification	-11.6149
▁조화	-11.6149
▁참여하여	-11.6149
▁그저	-11.615
▁외야수	-11.6151
▁로얄	-11.6151
word	-11.6152
rm	-11.6153
▁치료를	-11.6153
▁릴리	-11.6153
▁->	-11.6154
▁기존에	-11.6156
▁기록해	-11.6158
▁채워	-11.6159
왕국	-11.6159
▁연수	-11.6159
▁IBM	-11.616
▁작품상	-11.6161
back	-11.6161
▁bottom	-11.6161
▁어휘	-11.6161
트와	-11.6162
▁동래	-11.6162
마스터	-11.6162
▁10%	-11.6163
▁AB	-11.6166
~7	-11.6167
혁신	-11.6168
▁성벽	-11.6169
▁보여주고	-11.617
▁러셀	-11.6173
▁넘기	-11.6177
양군	-11.6177
베스	-11.6177
▁Japan	-11.6177
▁USS	-11.6177
▁쉐	-11.6178
▁미야자키	-11.6179
▁Mor	-11.618
지수	-11.618
켜	-11.618
AF	-11.618
▁시네마	-11.618
동원	-11.618
NE	-11.6182
▁공세	-11.6182
!!11	-11.6182
▁로열	-11.6182
tom	-11.6182
음이	-11.6184
▁주장한	-11.6185
▁겹	-11.6185
비용	-11.6187
▁IV	-11.6187
▁중앙에	-11.6189
▁경계를	-11.619
▁영화의	-11.619
해온	-11.619
式	-11.6191
▁Museum	-11.6191
Gr	-11.6191
▁가마쿠라	-11.6192
증을	-11.6193
▁접하고	-11.6193
▁구축함	-11.6194
》〈	-11.6194
Omega	-11.6194
▁정동	-11.6195
▁대한항공	-11.6196
▁실질적인	-11.6197
▁2-1	-11.6197
▁시상	-11.6198
▁소생	-11.6199
▁증축	-11.6201
▁와이	-11.6201
▁Br	-11.6201
있던	-11.6202
▁일본으로	-11.6202
화로	-11.6202
▁하락	-11.6202
▁각기	-11.6202
약을	-11.6205
!!12	-11.6206
▁시스템은	-11.6206
해지는	-11.6206
▁초연	-11.6207
▁바리	-11.6207
권과	-11.6209
▁몸이	-11.6211
▁대포	-11.6215
히는	-11.6216
▁왕으로	-11.6219
!!9	-11.6222
▁밀란	-11.6225
▁추정되는	-11.6225
▁영원	-11.6225
▁BongGon	-11.6226
▁작품에	-11.6226
▁교황청	-11.6226
▁물리학자	-11.6227
▁그룹의	-11.6228
공의	-11.6228
▁번영	-11.623
▁단어를	-11.623
사지	-11.6232
▁이닝	-11.6235
▁온다	-11.6235
▁(1978	-11.6235
▁유네스코	-11.6236
▁형식을	-11.6237
▁지고	-11.6237
▁아이콘	-11.6237
▁워드	-11.6237
▁진해	-11.6238
▁임명되어	-11.6241
pos	-11.6242
▁날씨	-11.6243
규정	-11.6243
▁채권	-11.6243
▁인접역	-11.6244
▁체류	-11.6244
▁지니	-11.6245
▁(14	-11.6246
킨스	-11.6246
경기를	-11.6247
▁두어	-11.6248
工	-11.6248
▁상부	-11.6249
부에서	-11.625
▁79	-11.625
▁징계	-11.6252
▁근처의	-11.6252
▁반지	-11.6252
가스	-11.6255
▁북동부	-11.6256
킴	-11.6257
▁석조	-11.6261
▁93	-11.6262
▁육지	-11.6263
▁도둑	-11.6263
면에서	-11.6264
▁시라	-11.6264
▁로렌스	-11.6264
▁놓은	-11.6264
▁성사	-11.6266
▁아마도	-11.6267
▁현존하는	-11.6269
▁그래	-11.6269
▁활발한	-11.6269
tri	-11.627
대손	-11.6271
▁정차역	-11.6271
▁LP	-11.6272
▁외곽	-11.6277
▁아이디	-11.6278
륨	-11.6278
▁댐	-11.6279
▁제압	-11.6279
경유지	-11.6279
▁맘	-11.628
LC	-11.6281
▁아이스하키	-11.6281
▁사무총장	-11.6281
학습	-11.6282
▁비오	-11.6282
이사	-11.6284
節	-11.6284
ハ	-11.6284
▁의미에서	-11.6286
▁고원	-11.6286
▁연구하는	-11.6288
▁일원으로	-11.629
THE	-11.629
시고	-11.6292
픽	-11.6293
아트	-11.6294
법과	-11.6296
▁자동차도	-11.6296
▁하였는데	-11.6296
橋	-11.6297
▁일명	-11.6299
▁페이스	-11.6299
▁공간의	-11.63
자격	-11.63
▁전날	-11.63
듬	-11.6301
▁수신	-11.6302
▁인신공격	-11.6304
▁America	-11.6305
▁CR	-11.6306
▁가고	-11.6307
들인	-11.631
▁AP	-11.6312
순환	-11.6312
監	-11.6312
우가	-11.6313
▁아산	-11.6313
닷	-11.6316
▁Volume	-11.6316
가게	-11.6317
▁신청을	-11.6318
▁프라이	-11.6318
lia	-11.6319
댁	-11.6319
豊	-11.632
그린	-11.632
mus	-11.6322
▁계열사	-11.6323
▁셸	-11.6325
uss	-11.6326
▁음반은	-11.6326
▁제외하면	-11.6328
▁로비	-11.6328
▁대상을	-11.6329
▁다리를	-11.633
▁동명	-11.633
AE	-11.633
바이러스	-11.6332
tag	-11.6332
▁무관	-11.6333
▁설명을	-11.6333
▁신비	-11.6334
▁얼굴을	-11.6336
▁응시	-11.6336
Per	-11.6337
▁겉	-11.6337
시에서	-11.6337
결혼	-11.6338
▁성공한	-11.6339
▁허리	-11.6339
▁가산	-11.6339
Courier	-11.6339
▁블라디미르	-11.634
팀이	-11.634
▁이른	-11.634
margin	-11.6341
▁벨라루스	-11.6341
▁존속	-11.6342
▁더빙	-11.6344
평론가	-11.6344
▁사용하면	-11.6344
허가	-11.6345
▁전통적으로	-11.6345
▁면제	-11.6345
▁목조	-11.6347
▁대가	-11.6348
이었다고	-11.6348
▁랭	-11.6349
▁선행	-11.635
사라	-11.6351
▁도덕	-11.6355
otimes	-11.6355
실험	-11.6356
내에	-11.6357
바나	-11.6358
▁which	-11.6358
▁예전에	-11.6359
IAN	-11.636
▁Story	-11.636
▁대치	-11.6362
▁이론은	-11.6362
돌이	-11.6363
파이어	-11.6365
▁점에	-11.6366
▁우세	-11.6367
▁자유로운	-11.6368
▁김미	-11.6368
▁시작된다	-11.6369
103	-11.637
▁들어와	-11.637
▁제프	-11.637
전의	-11.6371
▁적대	-11.6373
▁우편	-11.6375
▁지키는	-11.6375
꼴	-11.6376
카라	-11.6376
▁del	-11.6377
▁간접	-11.6377
▁시대를	-11.6377
▁(2002)	-11.6377
▁후미	-11.638
▁프랑스에서	-11.6381
▁팀에	-11.6381
▁붙은	-11.6384
▁people	-11.6384
▁뜨거운	-11.6385
CL	-11.6385
ors	-11.6385
Ba	-11.6386
▁군정	-11.6387
▁윤상	-11.6387
▁메르	-11.6389
iss	-11.6389
크리스	-11.6389
▁프로젝트를	-11.639
▁북서부	-11.6391
▁벼슬	-11.6392
109	-11.6392
▁와일드	-11.6393
▁세상에	-11.6394
EM	-11.6395
▁체육관	-11.6396
임이	-11.6396
▁어항	-11.6396
▁도시는	-11.6396
想	-11.6397
錄	-11.6397
▁코치로	-11.6397
▁팔레스타인	-11.6399
tin	-11.64
청년	-11.6401
▁윤치호	-11.6401
▁유죄	-11.6401
▁여당	-11.6405
예산	-11.6407
▁기갑	-11.6408
▁만나는	-11.6409
▁보전	-11.641
▁박수	-11.641
rho	-11.641
ign	-11.6412
▁이식	-11.6413
▁움직이	-11.6414
▁패키지	-11.6414
▁요구했다	-11.6414
▁없었기	-11.6418
▁시청자	-11.6419
▁2.5	-11.6419
▁파란색	-11.642
▁혼다	-11.6421
▁맡	-11.6422
▁한민족	-11.6422
득표수	-11.6422
▁총독부	-11.6423
▁차량이	-11.6423
▁강남구	-11.6423
▁왜냐하면	-11.6423
▁일반화	-11.6426
▁초등	-11.6426
행을	-11.6426
▁단위로	-11.6426
▁간단히	-11.6428
▁서유럽	-11.6428
▁프로그램이	-11.6428
▁링크를	-11.6429
padding	-11.643
적이지	-11.6431
▁담당하고	-11.6432
령이	-11.6433
判	-11.6433
ᄒ	-11.6436
▁불을	-11.6438
▁명제	-11.644
이동	-11.644
▁영감을	-11.6441
▁중심부	-11.6442
▁시를	-11.6442
=4	-11.6446
▁재혼	-11.6446
▁내려가	-11.6447
▁탤런트	-11.6452
▁날아	-11.6452
▁교단	-11.6452
▁백성	-11.6452
▁웹툰	-11.6452
▁마블	-11.6452
▁수면	-11.6453
▁바스	-11.6454
▁정종	-11.6454
▁래퍼	-11.6454
나눔스퀘어라운드	-11.6456
▁공의회	-11.6458
▁한국에	-11.6458
▁분리되어	-11.6458
▁website	-11.6459
▁고성	-11.6461
▁소수의	-11.6461
▁시호는	-11.6461
第	-11.6461
▁되지만	-11.6462
▁김은	-11.6462
yan	-11.6463
▁작고	-11.6463
Com	-11.6463
▁리스	-11.6464
▁스토	-11.6465
혔	-11.6465
親	-11.6465
스트로	-11.6466
▁WITH	-11.6466
▁재현	-11.6466
면으로	-11.6469
▁로이	-11.647
▁(2011)	-11.6472
▁수령	-11.6472
▁스킬	-11.6473
▁거기서	-11.6474
▁(1973	-11.6475
▁일찍	-11.6475
님과	-11.6477
media	-11.6478
▁바꿀	-11.648
▁ME	-11.648
▁North	-11.6481
▁난카이	-11.6481
▁가네	-11.6482
▁주부	-11.6482
=1}^	-11.6482
정에	-11.6482
메이트	-11.6482
▁비틀즈	-11.6482
ions	-11.6482
▁세자	-11.6483
역과	-11.6484
여명의	-11.6485
▁공적	-11.6487
추진	-11.6488
▁그만	-11.6489
▁탐색	-11.6491
▁약자	-11.6492
▁Ri	-11.6492
것은	-11.6494
루아	-11.6495
Car	-11.6496
▁입성	-11.6496
수산	-11.6497
▁von	-11.6497
▁한스	-11.6498
▁가자	-11.6499
竹	-11.6499
▁클라크	-11.6499
【	-11.6499
▁정경	-11.65
▁중요하다	-11.6501
▁이루어지지	-11.6501
▁강점기의	-11.6501
:8	-11.6504
고자	-11.6504
▁그럼	-11.6505
▁루스	-11.6505
▁키프로스	-11.6505
▁캐서린	-11.6506
▁With	-11.6506
▁효력	-11.6506
▁귀신	-11.6506
▁확실한	-11.6507
烈	-11.6509
ball	-11.6509
▁first	-11.651
▁900	-11.6511
▁황실	-11.6512
▁섭취	-11.6512
않	-11.6513
▁전인	-11.6514
벌레	-11.6515
▁트루	-11.6515
▁Fe	-11.6516
▁시대에는	-11.6516
-1)	-11.6517
▁한국에서는	-11.6519
제한	-11.6519
사우루스	-11.6519
▁건물을	-11.652
▁김홍	-11.652
▁고장	-11.6521
▁했다는	-11.6522
(2015	-11.6523
Ph	-11.6524
▁June	-11.6525
▁왕위를	-11.6526
▁격퇴	-11.6526
면적	-11.6528
IO	-11.6529
▁강행	-11.6529
▁시민들	-11.653
非	-11.6532
▁준결승	-11.6532
▁시각적	-11.6532
▁도착한	-11.6533
▁한인	-11.6533
▁거주하는	-11.6534
▁깃발	-11.6534
▁모로코	-11.6534
▁개념이	-11.6535
rem	-11.6535
수원	-11.6535
GE	-11.6535
▁목요일	-11.6536
▁빌라	-11.6536
▁비치	-11.654
~4	-11.654
▁이해할	-11.6541
俊	-11.6542
▁마쳤다	-11.6542
▁Bi	-11.6542
▁사이에는	-11.6543
▁휴가	-11.6543
▁카스	-11.6543
▁sp	-11.6543
="5"	-11.6543
천동	-11.6543
So	-11.6545
mes	-11.6546
▁헌법재판소	-11.6546
ew	-11.6547
▁미터	-11.6549
▁소령	-11.6549
OM	-11.655
권으로	-11.6552
▁건물이	-11.6552
▁남양	-11.6552
▁마하	-11.6553
▁몬테	-11.6554
妃	-11.6555
num	-11.6557
셜	-11.6558
▁新	-11.6558
-25	-11.6559
▁브레이크	-11.656
▁돼	-11.656
▁차지한	-11.656
▁71	-11.6561
臺	-11.6562
▁혼동	-11.6563
테크	-11.6563
워드	-11.6564
▁kt	-11.6565
▁차량은	-11.6566
▁Power	-11.6568
▁(2010)	-11.6569
CB	-11.657
▁발급	-11.6571
▁시기의	-11.6571
▁활약하였다	-11.6571
▁턱	-11.6572
▁중독	-11.6573
블랙	-11.6573
▁남기고	-11.6574
▁않을까요	-11.6574
▁제국은	-11.6575
▁물에	-11.6576
파와	-11.6576
▁개발된	-11.6577
▁키리	-11.6577
▁set	-11.6577
아노	-11.6579
▁아직까지	-11.6579
서면	-11.658
▁편집이	-11.6581
수용	-11.6581
▁신상	-11.6582
▁상기	-11.6583
▁난다	-11.6583
▁양측	-11.6584
▁가다	-11.6586
하되	-11.6587
▁대부	-11.6588
▁재팬	-11.6588
▁Ga	-11.6589
선택	-11.6589
▁유코	-11.659
더군요	-11.6594
▁진구	-11.6594
▁무거운	-11.6595
▁팩	-11.6595
▁여학생	-11.6595
▁has	-11.6595
▁햄	-11.6596
▁제독	-11.6597
▁수교	-11.6597
vis	-11.6598
▁비공식	-11.6599
bc	-11.66
122	-11.6601
▁장거리	-11.6601
▁체크	-11.6602
원숭이	-11.6602
ook	-11.6602
▁들어갈	-11.6603
▁경주시	-11.6603
▁SI	-11.6603
▁!14	-11.6603
툴	-11.6604
보존	-11.6604
유지	-11.6604
였	-11.6605
▁진행된다	-11.6605
았으나	-11.6606
▁각지	-11.6606
▁민속	-11.6606
ffffff	-11.6608
트론	-11.6609
계가	-11.6609
우의	-11.661
▁문서들	-11.661
▁남아있는	-11.6611
변호사	-11.6611
▁직전에	-11.6611
▁코믹	-11.6613
▁컴백	-11.6614
▁성공적인	-11.6617
ili	-11.662
gal	-11.6623
▁숙부	-11.6623
TR	-11.6624
94141">	-11.6625
▁질서	-11.6625
▁둘은	-11.6625
▁수행하는	-11.6626
orange	-11.6627
▁짝	-11.6627
선수권대회	-11.6628
▁레온	-11.6629
▁불리기도	-11.6629
▁니혼	-11.6629
▁숙청	-11.663
▁식사	-11.663
▁지질	-11.663
='	-11.663
▁버그	-11.6631
타는	-11.6632
▁모델이다	-11.6633
데라	-11.6634
▁적극적인	-11.6634
▁세종특별자치시	-11.6634
▁공간이	-11.6635
잭	-11.6637
副	-11.6637
▁좌절	-11.6637
▁간토	-11.6639
통상	-11.6639
▁프린세스	-11.6641
▁강성	-11.6643
▁(2000)	-11.6645
▁앉	-11.6645
렴	-11.6649
포항	-11.6649
0.5	-11.665
▁이루어지고	-11.6651
▁밝힌	-11.6652
▁기능은	-11.6654
▁패트릭	-11.6654
▁올바른	-11.6655
영역	-11.6655
▁진행된	-11.6656
▁극한	-11.6657
▁결론을	-11.6658
▁책임자	-11.6658
%8	-11.6658
▁과정은	-11.6658
▁테리	-11.6659
_3	-11.6661
▁동네	-11.6661
호기	-11.6664
len	-11.6665
▁전격	-11.6665
▁있었습니다	-11.6665
년동안	-11.6666
朱	-11.6668
2.1	-11.6668
예선	-11.6668
▁어드벤처	-11.6669
티노	-11.667
107	-11.6671
블루	-11.6671
▁역사적으로	-11.6672
▁결정적인	-11.6672
▁임용	-11.6672
▁중기	-11.6674
▁강동	-11.6676
▁사키	-11.6676
▁불어	-11.6677
▁이창	-11.6678
動	-11.6678
▁사라졌다	-11.6678
▁잃었다	-11.6679
▁취업	-11.6679
▁인정하고	-11.6679
▁94	-11.668
▁앞면	-11.6682
강의	-11.6683
▁문제의	-11.6683
겠	-11.6684
▁월드컵에서	-11.6685
토크	-11.6686
▁귀족들	-11.6688
▁고립	-11.6688
▁인터내셔널	-11.6688
▁(1977	-11.6688
▁House	-11.6689
▁저명한	-11.669
▁품고	-11.669
▁플라이	-11.669
▁디아	-11.6692
▁파장	-11.6693
스럽게	-11.6694
▁파일이	-11.6694
브르	-11.6695
▁매거진	-11.6696
▁남산	-11.6697
▁넣은	-11.6698
▁안녕하세요	-11.6699
▁것이므로	-11.67
▁충분	-11.6702
▁위기를	-11.6702
▁같은데	-11.6702
▁투수로서	-11.6702
츠카	-11.6702
▁Har	-11.6703
▁프레스	-11.6704
▁선수를	-11.6705
bert	-11.6705
▁당의	-11.6705
las	-11.6705
▁광해군	-11.6707
▁성공하였다	-11.6707
레나	-11.6707
▁컬	-11.6707
▁행위는	-11.6708
▁있나요	-11.6709
▁특이한	-11.671
▁저하	-11.671
▁극동	-11.6711
▁긴장	-11.6711
▁비난을	-11.6712
Sigma	-11.6712
▁뽑	-11.6712
▁스핀	-11.6712
aga	-11.6712
▁리얼	-11.6713
▁특별출연	-11.6713
▁크리스티안	-11.6715
▁보다는	-11.6715
▁비방	-11.6716
포럼	-11.6717
▁Ty	-11.6718
▁정작	-11.6719
▁서민	-11.6719
▁사이타마	-11.6719
▁로맨스	-11.672
▁유니	-11.6723
▁질문에	-11.6724
▁졸업했다	-11.6724
▁읍	-11.6725
겁	-11.6725
▁Pe	-11.6725
▁첨가	-11.6726
▁도라에몽	-11.6726
170	-11.6728
조가	-11.6729
▁계정명	-11.673
곡을	-11.6731
▁기아	-11.6731
▁선수들이	-11.6731
▁(2009)	-11.6732
▁침투	-11.6732
▁캔	-11.6732
▁경상도	-11.6735
▁아이디얼	-11.6735
쵸	-11.6736
HO	-11.6736
올라	-11.6736
서도	-11.6736
0!!	-11.6736
▁장녀	-11.6737
▁영동	-11.6739
호선과	-11.674
▁지명을	-11.6741
계는	-11.6741
▁좌의정	-11.6742
▁확인되었다	-11.6742
곡면	-11.6742
統	-11.6745
▁쇼와	-11.6745
=20%|	-11.6745
▁받았으나	-11.6747
▁사랑방	-11.6748
itt	-11.675
▁사서	-11.675
▁동행	-11.6751
du	-11.6751
▁할리우드	-11.6752
▁활약한	-11.6753
.[	-11.6753
▁제국이	-11.6755
문화사	-11.6756
Po	-11.6757
▁개혁을	-11.6757
夫	-11.6757
-29	-11.6758
▁소피아	-11.6758
▁James	-11.6759
vent	-11.6761
자르	-11.6761
▁아제르바이잔	-11.6761
^{-1}	-11.6761
▁83	-11.6763
▁세월	-11.6764
▁모욕	-11.6765
▁불가능한	-11.6765
▁지배를	-11.6765
ating	-11.6766
▁카미	-11.6766
▁빠지	-11.6767
▁system	-11.6767
▁답변을	-11.6767
페어	-11.6767
화는	-11.6768
프는	-11.6768
▁중기의	-11.6769
▁공사가	-11.6769
라트	-11.677
운행구간	-11.6771
▁생각하지	-11.6771
We	-11.6772
▁자격으로	-11.6772
▁도망	-11.6773
eta	-11.6773
▁점이다	-11.6774
▁등등	-11.6775
lip	-11.6775
▁동성애	-11.6775
▁플레	-11.6776
居	-11.6776
자신	-11.6778
인권	-11.6779
호와	-11.678
▁아침드라마	-11.6781
▁Edition	-11.6782
▁노란색	-11.6785
▁노동조합	-11.6788
▁대백과사전	-11.6788
▁통증	-11.6788
▁어워즈	-11.679
▁체계를	-11.6791
▁시체	-11.6792
け	-11.6793
▁부도	-11.6793
▁비평	-11.6794
FL	-11.6794
▁김포	-11.6795
共	-11.6796
▁아바	-11.6797
당이	-11.6798
공작	-11.68
▁CC	-11.68
▁폐기	-11.6801
있고	-11.6801
보면	-11.6801
▁교정	-11.6801
▁분지	-11.6803
관의	-11.6803
▁냉각	-11.6804
▁단점	-11.6804
▁슈트	-11.6807
프스키	-11.6809
미술관	-11.6809
▁어쩔	-11.681
▁부위원장	-11.6811
시드	-11.6812
▁연고	-11.6813
▁안티	-11.6816
▁Fl	-11.6816
▁군부	-11.6816
▁자손	-11.6818
▁220	-11.6818
▁영역을	-11.6819
▁리뷰	-11.682
▁정인	-11.682
▁0.5	-11.6821
vin	-11.6822
▁온갖	-11.6823
수학	-11.6824
▁문제점	-11.6826
▁가솔린	-11.6827
데일리	-11.6828
연장	-11.6829
▁억압	-11.683
툼	-11.683
▁평범한	-11.6832
▁3.1	-11.6834
▁(13)	-11.6834
너는	-11.6834
Me	-11.6835
점수	-11.6835
베스트	-11.6835
108	-11.6835
ries	-11.6836
▁생각된다	-11.6837
▁맞고	-11.6837
전은	-11.6838
서로	-11.6839
수단	-11.6839
▁레스토랑	-11.684
▁행동이	-11.684
ration	-11.6841
▁명종	-11.6842
▁해전	-11.6843
엣	-11.6846
ye	-11.6847
▁브라더스	-11.6849
사르	-11.685
▁복음	-11.685
▁브루스	-11.6851
▁밀도	-11.6852
▁지폐	-11.6853
토쿠	-11.6853
▁욕구	-11.6854
▁양반	-11.6855
▁용병	-11.6856
▁않아도	-11.6856
▁무기를	-11.6857
▁공사를	-11.6857
▁활동은	-11.6857
▁사례가	-11.6857
▁연구는	-11.6858
▁않았습니다	-11.6858
オ	-11.6859
▁등장했다	-11.6859
▁설명하는	-11.6861
장애인	-11.6861
UTC	-11.6864
지역의	-11.6865
▁파생	-11.6865
▁말하면	-11.6866
▁게리	-11.6866
▁파일럿	-11.6866
▁생각됩니다	-11.6866
IG	-11.6866
▁사용자들의	-11.6867
τ	-11.6867
▁앤더슨	-11.6867
▁아랍어	-11.6867
116	-11.6868
▁part	-11.6869
ush	-11.687
▁선을	-11.687
▁(14)	-11.687
▁낙선	-11.687
챠	-11.6871
▁날에	-11.6871
지방검찰청	-11.6871
▁국내외	-11.6871
▁봉인	-11.6871
▁전쟁으로	-11.6871
▁암흑	-11.6872
▁김정일	-11.6872
▁공격에	-11.6874
▁Great	-11.6874
▁살해당	-11.6874
▁위협을	-11.6874
았는데	-11.6875
▁초반에	-11.6876
리노	-11.6877
▁일하는	-11.6877
국립	-11.6879
▁!16	-11.6879
▁이천	-11.6879
▁반해	-11.688
▁몫	-11.6881
~17	-11.6882
zz	-11.6882
▁유동	-11.6883
▁고시엔	-11.6884
▁조경	-11.6884
확	-11.6885
▁왕건	-11.6885
▁기회가	-11.6885
▁최연소	-11.6886
▁연고지	-11.6886
х	-11.6888
전력	-11.6888
▁되어야	-11.689
▁로렌	-11.6891
▁대신하여	-11.6891
▁Ru	-11.6891
\{	-11.6891
엥	-11.6891
영화제	-11.6891
▁유타	-11.6892
▁송신소	-11.6892
▁들어간다	-11.6894
ena	-11.6894
리움	-11.6895
▁학교에	-11.6896
▁카자흐스탄	-11.6896
▁동북	-11.6897
▁달러의	-11.6897
▁쓰이고	-11.6897
력과	-11.6898
왔	-11.69
▁세워졌다	-11.6901
▁교외	-11.6901
IE	-11.6902
▁탐구	-11.6902
▁떨	-11.6902
▁묻	-11.6903
스트라	-11.6905
▁호출	-11.6905
hPa	-11.6907
▁적분	-11.691
냈	-11.6911
대법원	-11.6911
▁울프	-11.6912
종으로	-11.6912
▁추산으로	-11.6914
▁시칠리아	-11.6914
▁박준	-11.6914
▁버렸다	-11.6915
112	-11.6916
▁토끼	-11.6918
▁연결된	-11.6919
▁넷	-11.6919
라이브	-11.6921
▁존재하며	-11.6923
▁GS	-11.6923
▁상소	-11.6925
▁그것	-11.6925
인들에게	-11.6926
설명	-11.6926
▁각색	-11.6927
▁방사선	-11.6927
▁엄격한	-11.6927
ras	-11.6927
▁진공	-11.6927
▁차례로	-11.6928
정동	-11.6929
▁멀티미디어	-11.6929
왔고	-11.693
▁그리스도의	-11.693
소방서	-11.693
창원	-11.6931
▁휠	-11.6931
▁o	-11.6931
당을	-11.6934
▁있으면서	-11.6934
슈타인	-11.6935
비전	-11.6937
역할	-11.6937
arr	-11.6937
▁전체가	-11.6937
▁맺어	-11.6937
▁주어진다	-11.6937
▁협업	-11.6939
え	-11.6939
ali	-11.694
경기수	-11.6941
세에게	-11.6942
▁성취	-11.6942
▁가난한	-11.6943
^*	-11.6944
▁GT	-11.6945
1.1	-11.6949
▁표현이	-11.6949
▁순수한	-11.695
▁Back	-11.695
▁사람도	-11.695
▁가장자리	-11.6952
メ	-11.6952
▁게임은	-11.6952
-50	-11.6952
▁생겨	-11.6953
네덜란드	-11.6953
itz	-11.6954
▁주한	-11.6954
▁그릇	-11.6954
▁루카	-11.6956
▁닛폰햄	-11.6957
▁1884	-11.6959
▁대거	-11.696
▁앞의	-11.696
▁방법이다	-11.6961
레드	-11.6962
▁준비를	-11.6963
▁서문	-11.6964
▁저작권자	-11.6964
▁사라진	-11.6964
방위	-11.6965
▁과실	-11.6967
121	-11.6968
권에서	-11.6968
▁공고	-11.6969
▁다음이	-11.6971
그대	-11.6972
라이프	-11.6973
▁뿐입니다	-11.6973
▁누르고	-11.6974
▁균	-11.6974
▁독립된	-11.6975
▁열전	-11.6975
▁재상	-11.6975
▁학업	-11.6975
▁리오	-11.6975
공정	-11.6977
▁수술을	-11.6977
잡지	-11.6978
화에	-11.6978
▁ma	-11.6978
카게	-11.6979
▁모노	-11.698
▁주권	-11.6981
▁저기압	-11.6984
집을	-11.6985
▁종점	-11.6986
2.2	-11.6987
▁여자친구	-11.6987
▁후일	-11.6988
▁나타내	-11.6988
되나	-11.6989
▁Si	-11.6989
제약	-11.6991
▁거슬러	-11.6992
▁맥주	-11.6994
▁서자	-11.6994
뚜	-11.6994
▁숭배	-11.6995
▁없다면	-11.6996
▁장원	-11.6997
ful	-11.6997
깃	-11.6999
▁나눌	-11.7
▁소원	-11.7
▁묘지	-11.7001
▁펼쳤다	-11.7001
NG	-11.7002
물리학	-11.7002
ский	-11.7003
문은	-11.7003
▁예하	-11.7004
▁킴	-11.7004
렸	-11.7005
▁하우	-11.7005
▁포항시	-11.7006
▁2,000	-11.7006
계로	-11.7007
time	-11.7007
요즘	-11.7011
▁되도록	-11.7011
ノ	-11.7012
▁피신	-11.7012
▁자연스럽게	-11.7013
Redirect	-11.7016
펄	-11.7016
▁아오이	-11.7016
▁전성기	-11.7017
▁역사는	-11.7018
▁김정은	-11.7018
▁보리	-11.7018
す	-11.7019
pan	-11.7021
▁신기	-11.7021
CR	-11.7022
▁Gold	-11.7022
IRTC	-11.7022
▁카이사르	-11.7022
▁시골	-11.7023
▁무죄	-11.7023
▁수련	-11.7024
▁기록했고	-11.7024
▁잡은	-11.7027
▁NO	-11.7027
▁공헌	-11.7029
▁네이션스컵	-11.7029
▁개인정보	-11.7029
▁쫓아	-11.7029
▁무시하고	-11.703
▁im	-11.7031
▁Church	-11.7033
▁주시기	-11.7033
▁돌격	-11.7034
산맥	-11.7035
▁참여하고	-11.7036
▁매입	-11.7037
▁모르겠습니다	-11.7038
▁검은색	-11.7038
스에	-11.7039
▁장례식	-11.704
fi	-11.7042
연합뉴스	-11.7042
▁대통령을	-11.7043
인칭	-11.7044
▁성별	-11.7045
▁여의도	-11.7045
▁그루	-11.7045
~5	-11.7046
▁급격히	-11.7046
▁바티칸	-11.7046
▁비판이	-11.7049
▁남서부	-11.7049
▁펴	-11.705
台	-11.705
▁윙	-11.7051
▁필리프	-11.7052
화에서	-11.7052
ates	-11.7053
▁스폰서	-11.7053
화되어	-11.7054
uv	-11.7054
▁오고	-11.7055
▁공천	-11.7055
bot	-11.7056
▁가공의	-11.7056
del	-11.7057
▁발의	-11.7057
ros	-11.7057
▁다음해	-11.7057
▁주에서	-11.7057
▁dis	-11.7058
공을	-11.7058
갱	-11.7058
▁칭호	-11.7061
▁룩셈부르크	-11.7061
▁정보상자	-11.7062
주일	-11.7063
현동	-11.7063
▁슈퍼컵	-11.7064
▁내부에서	-11.7065
▁세례	-11.7065
길이	-11.7065
동은	-11.7065
▁RE	-11.7065
▁떨어지	-11.7066
▁키드	-11.7067
力	-11.7067
▁진출했다	-11.7068
▁김성수	-11.7068
코르	-11.707
▁추출	-11.7071
▁출석	-11.7071
▁쓰여	-11.7073
▁language	-11.7073
▁반도체	-11.7074
▁Hi	-11.7074
頭	-11.7074
네르	-11.7074
▁규정을	-11.7074
아야	-11.7074
inter	-11.7075
▁계획에	-11.7076
문학상	-11.7076
민주주의	-11.7077
▁Peter	-11.7078
町	-11.7078
lon	-11.708
▁보인	-11.708
▁것으로서	-11.708
▁심각	-11.7081
▁나인	-11.7081
▁증대	-11.7082
▁발매했다	-11.7082
har	-11.7082
arch	-11.7083
▁메뉴	-11.7084
0000">	-11.7085
▁수필	-11.7087
여명	-11.7087
면사무소	-11.7088
▁만세	-11.7088
▁Company	-11.7088
▁슌	-11.7089
▁UK	-11.709
▁우승에	-11.7091
▁황제가	-11.7092
▁상징하는	-11.7093
대원	-11.7094
▁아카데미상	-11.7095
▁클럭	-11.7095
▁평원	-11.7101
▁타마	-11.7101
死	-11.7102
泉	-11.7102
▁사리	-11.7102
원곡	-11.7104
ally	-11.7104
▁근원	-11.7106
▁Free	-11.7107
▁나가는	-11.7109
▁리그의	-11.711
rad	-11.711
▁미군정	-11.711
▁피해가	-11.7111
▁결함	-11.7112
반대	-11.7112
郞	-11.7113
▁애칭	-11.7113
▁스위치	-11.7115
▁하인	-11.7115
▁워터	-11.7115
▁수상한	-11.7116
▁본선의	-11.7116
▁행정동	-11.7116
▁공약	-11.7116
정비	-11.7116
요원	-11.7117
대륙	-11.7119
▁로마자	-11.712
▁time	-11.712
▁퀴	-11.712
』,	-11.7121
▁튜	-11.7124
▁다마	-11.7124
▁시스템이	-11.7124
▁시즌에는	-11.7125
1992	-11.7125
판에	-11.7125
리얼	-11.7126
▁단행	-11.7126
▁91	-11.7126
ː	-11.7127
▁Te	-11.7127
▁좌표	-11.7127
▁러시아어	-11.7129
▁필요합니다	-11.7131
▁정전	-11.7132
일본어	-11.7132
▁서산	-11.7133
如	-11.7133
▁견해를	-11.7134
▁민영화에	-11.7134
▁공모	-11.7138
ALL	-11.7139
asp	-11.714
▁생모	-11.7141
▁대회는	-11.7141
OC	-11.7141
xi	-11.7143
▁정찰	-11.7143
크레	-11.7143
찬성	-11.7143
▁환경에서	-11.7143
dic	-11.7143
▁효종	-11.7143
▁신조	-11.7145
▁감사하겠습니다	-11.7145
▁개막전	-11.7145
▁오세아니아	-11.7148
▁클라우드	-11.7148
▁시위대	-11.7148
▁학교법인	-11.7148
었기	-11.7148
업로더	-11.7148
▁언더	-11.7149
▁선종	-11.7149
▁제작되었다	-11.715
판은	-11.7151
數	-11.7151
MM	-11.7152
uff	-11.7153
▁1-0	-11.7153
▁싸이	-11.7155
▁Service	-11.7155
▁지지율	-11.7155
▁지정된	-11.7155
▁안경	-11.7156
▁담아	-11.7156
▁세계관	-11.7157
}=	-11.7157
press	-11.7159
▁댓글	-11.7159
ics	-11.7159
▁졸업하였다	-11.7159
싱글	-11.7159
head	-11.716
양성	-11.716
,《	-11.716
▁반격	-11.7161
▁파리에서	-11.7162
▁펑	-11.7162
▁워너	-11.7163
리라	-11.7163
전으로	-11.7164
포를	-11.7166
▁선우	-11.7169
諸	-11.7169
▁기간을	-11.717
gar	-11.7171
인기가요	-11.7172
▁릭	-11.7172
▁중령	-11.7173
▁자비	-11.7173
▁공습	-11.7174
플러스	-11.7175
彦	-11.7176
ds	-11.7177
양식	-11.7177
▁초상화	-11.7178
▁드라	-11.718
망을	-11.718
▁조종사	-11.7181
▁방송인	-11.7182
개정	-11.7182
▁청소	-11.7182
▁College	-11.7182
▁일제강점기	-11.7183
▁생물학	-11.7184
번으로	-11.7185
▁얻지	-11.7186
왈	-11.7186
▁선발로	-11.7186
기본	-11.7187
▁기초로	-11.7189
RS	-11.719
▁Blue	-11.7191
▁불교의	-11.7192
▁우주의	-11.7193
▁밝히	-11.7194
▁부를	-11.7194
▁스트	-11.7194
▁메시지를	-11.7195
▁동치	-11.7195
▁탐지	-11.7197
▁구할	-11.7198
포르	-11.7198
▁아이폰	-11.7198
▁치안	-11.72
▁우의정	-11.72
▁읽고	-11.7203
▁없으므로	-11.7204
sort	-11.7206
▁공휴일	-11.7207
▁젤	-11.7208
▁논의가	-11.7208
▁도요토미	-11.7208
2.0	-11.7208
▁사칭	-11.7208
▁바퀴	-11.721
사쿠	-11.721
岩	-11.7211
됨으로써	-11.7211
▁밝히고	-11.7212
▁예술가	-11.7213
▁추첨	-11.7216
tus	-11.7216
연구회	-11.7217
▁공채	-11.7217
▁그렇지만	-11.7218
▁정하는	-11.7219
▁이루어지는	-11.722
▁파이터	-11.7221
▁오스	-11.7224
▁정세	-11.7226
▁텔레	-11.7227
▁특전	-11.7228
바인	-11.7228
▁봐	-11.7229
▁추가적인	-11.723
▁붐	-11.723
동화	-11.7231
▁있거나	-11.7231
지나	-11.7232
▁영화상	-11.7233
태수	-11.7233
▁정진	-11.7234
▁특징은	-11.7235
▁올리고	-11.7238
▁우측	-11.7238
▁아닐	-11.7238
▁전한다	-11.7238
▁이준	-11.7239
론에	-11.7239
▁이해가	-11.724
▁모양이	-11.724
▁치고	-11.7241
▁난민	-11.7242
▁아홉	-11.7242
스쿨	-11.7242
▁마우스	-11.7242
▁늘리	-11.7243
▁최상	-11.7243
▁Lee	-11.7244
▁시작했으며	-11.7246
▁오쿠	-11.7246
▁호위	-11.7246
益	-11.7247
▁체코슬로바키아	-11.7248
▁물어	-11.7248
par	-11.7248
▁취항	-11.7251
플로	-11.7251
▁부대를	-11.7251
▁보복	-11.7252
-27	-11.7252
▁자신들	-11.7253
▁완벽한	-11.7253
▁Summer	-11.7255
▁행위가	-11.7255
▁폐교	-11.7255
의견	-11.7256
▁중국과	-11.7256
oni	-11.7258
▁측의	-11.7259
User	-11.726
▁심야	-11.726
▁발견되는	-11.726
▁동창	-11.726
▁악용	-11.726
▁기록된	-11.7261
▁요구를	-11.7262
=|	-11.7263
▁작센	-11.7263
▁근본	-11.7264
▁트로이	-11.7264
▁본인은	-11.7264
믹	-11.7265
▁후보를	-11.7266
들리	-11.7266
▁카토	-11.7266
OD	-11.727
▁3.0	-11.727
베이스	-11.7271
나마	-11.7271
▁가브리엘	-11.7271
久	-11.7271
▁유수	-11.7271
▁죽음의	-11.7272
▁레논	-11.7272
쓰키	-11.7273
▁ID	-11.7273
▁동위	-11.7274
▁릴	-11.7274
ν	-11.7274
▁서쪽에	-11.7275
▁정서	-11.7275
▁술탄	-11.7276
▁대변	-11.7277
▁희생자	-11.7278
▁그럴	-11.7279
약품	-11.7281
報	-11.7282
En	-11.7283
▁인정받아	-11.7284
보물	-11.7284
▁맞추	-11.7284
▁그쳤다	-11.7284
▁슬픔	-11.7285
oth	-11.7286
사관학교	-11.7287
▁RNA	-11.7287
▁아저씨	-11.7288
uc	-11.7289
▁그게	-11.7291
▁모리스	-11.7291
▁내레이션	-11.7291
url	-11.7292
▁라스트	-11.7292
ANG	-11.7293
▁out	-11.7293
▁승인을	-11.7293
BL	-11.7294
▁중퇴	-11.7294
▁맷	-11.7296
▁방영되었다	-11.7296
▁비용을	-11.7296
▁뻗어	-11.7297
▁부가	-11.7297
▁Long	-11.7299
▁상태였다	-11.73
▁복소수	-11.73
▁리더십	-11.7301
▁버전은	-11.7302
▁불량	-11.7302
▁숀	-11.7302
▁찾아볼	-11.7303
▁여지가	-11.7303
▁함유	-11.7305
▁존재할	-11.7306
▁November	-11.7308
▁활약하고	-11.7309
▁넣	-11.731
▁김일	-11.731
행선	-11.7312
▁의식을	-11.7312
▁줄어들	-11.7313
▁그러면	-11.7314
라기	-11.7317
nel	-11.7317
▁평택	-11.7318
▁진료	-11.7318
▁배웠다	-11.732
포리	-11.732
▁Sun	-11.7321
▁뒷받침	-11.7321
사유	-11.7322
▁감행	-11.7322
▁이석	-11.7325
ي	-11.7325
▁박진	-11.7325
▁170	-11.7325
▁앉아	-11.7326
▁시절에는	-11.7327
▁요동	-11.7328
▁힘입어	-11.7328
▁175	-11.7329
▁팔라	-11.7329
▁이소	-11.733
lit	-11.733
▁쓰였다	-11.7333
▁메구미	-11.7333
▁주오	-11.7334
▁손녀	-11.7334
▁지켜보	-11.7335
▁표적	-11.7335
갔고	-11.7335
윅	-11.7336
▁시켜	-11.7336
▁파문	-11.7337
▁故	-11.7338
......	-11.7338
▁기분	-11.7339
콩가루	-11.7339
▁컬럼비아	-11.7339
▁산요	-11.734
모가	-11.7343
▁반론	-11.7343
▁독일과	-11.7345
▁블랙홀	-11.7345
▁자크	-11.7345
▁분쟁을	-11.7346
▁아시카가	-11.7346
▁소나타	-11.7346
▁봉쇄	-11.7347
혹은	-11.7348
tain	-11.7351
북부	-11.7352
연수	-11.7353
▁무라	-11.7353
▁마스크	-11.7353
▁off	-11.7354
랙	-11.7354
▁아닌가	-11.7354
▁둘러싸고	-11.7355
된다고	-11.7355
ado	-11.7355
고도	-11.7356
▁Kids	-11.7356
▁휘하	-11.7357
lor	-11.7358
▁(2012)	-11.7359
▁결정한다	-11.7359
▁겪었다	-11.736
▁AD	-11.736
▁밑에서	-11.736
!(	-11.7361
▁마음의	-11.7364
소득	-11.7365
▁높고	-11.7365
▁개발자	-11.7366
▁김세	-11.7367
▁비주얼	-11.7368
▁섬을	-11.7371
▁장치를	-11.7371
원정	-11.7371
▁유지하는	-11.7373
▁라오스	-11.7373
113	-11.7374
▁내리는	-11.7374
▁한나라	-11.7375
▁레일	-11.7375
주제	-11.7375
▁모델을	-11.7376
책을	-11.7376
▁플레이어가	-11.7376
의료	-11.7376
▁올드	-11.7377
스토리	-11.7377
▁West	-11.7377
▁방치	-11.7377
▁소유하고	-11.7378
▁예배	-11.7379
되므로	-11.738
▁가족들	-11.738
특별위원회	-11.738
개선	-11.738
왕은	-11.738
받을	-11.7382
▁세월호	-11.7382
務	-11.7382
비안	-11.7383
oz	-11.7384
▁포토	-11.7386
▁정상적인	-11.7387
▁his	-11.7387
진흥원	-11.7387
▁증거가	-11.7389
▁카터	-11.7389
시에는	-11.7389
▁응우옌	-11.7391
▁뚫	-11.7391
▁결정되었다	-11.7391
인용	-11.7392
▁관리하는	-11.7392
意	-11.7393
Asadal	-11.7393
▁Michael	-11.7393
▁콤	-11.7393
▁As	-11.7394
▁사명	-11.7394
고개	-11.7395
든지	-11.7395
마지막	-11.7395
▁USA	-11.7395
貴	-11.7397
wer	-11.7397
▁뭔가	-11.7397
▁기숙사	-11.7397
가키	-11.7397
▁cell	-11.7397
무사	-11.7398
▁사항을	-11.7399
▁스파르타	-11.74
▁영상을	-11.74
dio	-11.74
▁단계에서	-11.74
▁데니스	-11.7401
▁세션	-11.7402
▁string	-11.7402
▁만료	-11.7403
바위	-11.7403
▁자금을	-11.7404
샵	-11.7404
▁관리를	-11.7404
▁통근	-11.7404
▁토성	-11.7404
▁해상에서	-11.7407
▁용어를	-11.7407
▁신입생	-11.7407
▁요즘	-11.7409
▁유벤투스	-11.7409
▁정치학	-11.7411
its	-11.7413
히데	-11.7413
▁교수가	-11.7414
▁스태프	-11.7415
지도자	-11.7416
▁아이디어	-11.7416
▁제왕	-11.7416
▁늘어나	-11.7418
테일	-11.7418
▁평창	-11.7418
▁이남	-11.7419
▁go	-11.7419
보통	-11.7421
kt	-11.7422
▁광범위한	-11.7423
▁전의	-11.7424
情	-11.7425
▁원작으로	-11.7426
▁바보	-11.7428
▁축적	-11.7429
▁Special	-11.7433
▁레바논	-11.7434
▁엽	-11.7434
▁도와주	-11.7434
丁	-11.7436
튜	-11.7437
▁Tra	-11.7437
Qu	-11.7439
▁다케다	-11.7439
▁출전한	-11.7439
▁Review	-11.7441
▁컴퍼니	-11.7441
source	-11.7441
▁최상위	-11.7443
판결	-11.7444
▁방콕	-11.7445
한겨레	-11.7447
하리	-11.7448
▁암시	-11.7448
mas	-11.7449
▁Ti	-11.745
▁닭	-11.745
판의	-11.7451
▁Language	-11.7451
▁이성계	-11.7451
▁오릭스	-11.7454
ident	-11.7455
▁행동에	-11.7456
▁sa	-11.7456
▁정계	-11.7457
시라	-11.7458
▁요소가	-11.7458
가치	-11.7458
▁태양계	-11.7459
▁자의	-11.746
▁명확한	-11.7461
▁재계약	-11.7463
질이	-11.7464
▁질문을	-11.7465
藏	-11.7465
▁북한군	-11.7465
表	-11.7465
이브	-11.7467
non	-11.7467
▁아가	-11.7468
원과	-11.7468
mor	-11.747
변화	-11.7471
▁커플	-11.7471
omys	-11.7471
▁거느리고	-11.7471
쿠니	-11.7472
hom	-11.7473
▁CEO	-11.7474
▁필요할	-11.7474
▁여기는	-11.7474
▁부분의	-11.7475
▁스왈로스	-11.7476
002	-11.7477
▁여주	-11.7478
▁이용자	-11.748
(1999	-11.7481
학기	-11.7481
▁얻	-11.7481
▁선보였다	-11.7481
▁똑같이	-11.7482
겠지요	-11.7482
▁입단했다	-11.7483
▁Roman	-11.7484
▁실패하였다	-11.7484
▁인정받	-11.7484
가온	-11.7485
천여	-11.7486
▁기요	-11.7487
경북	-11.7488
▁실패로	-11.7489
개미	-11.7489
톱	-11.7489
조례	-11.749
Pr	-11.749
노동자	-11.749
내고	-11.7491
Mi	-11.7492
올리	-11.7492
Gu	-11.7493
▁이끌	-11.7493
▁무성	-11.7494
▁축출	-11.7494
총회	-11.7495
▁잊	-11.7496
▁350	-11.7496
war	-11.7496
210	-11.7496
내에서	-11.7497
mal	-11.7497
함으로	-11.7497
토프	-11.7498
▁일어	-11.7498
▁총선거	-11.7498
▁중단되었다	-11.7499
▁퍼스트	-11.7499
마법	-11.75
▁구호	-11.7501
▁소속된	-11.7501
한국의	-11.7501
▁둘러보기	-11.7502
DR	-11.7503
티어	-11.7504
▁집착	-11.7505
▁전지	-11.7505
▁물자	-11.7505
동부	-11.7506
▁선장	-11.7506
▁Association	-11.7507
search	-11.7509
▁매출	-11.7511
▁오프라인	-11.7512
▁동쪽에	-11.7513
▁다양	-11.7515
공립보통학교	-11.7516
▁구조는	-11.7518
▁네팔	-11.7519
▁정도였다	-11.7519
▁모스	-11.7519
▁격투	-11.752
aj	-11.752
된다는	-11.7522
▁비리	-11.7525
▁픽	-11.7526
▁풍부	-11.7526
▁중에서는	-11.7527
▁어머니가	-11.7527
靈	-11.7527
▁않	-11.7529
▁음식을	-11.7529
▁상하	-11.7529
▁등이다	-11.7531
따라	-11.7532
xA	-11.7533
▁대북	-11.7533
1993	-11.7534
▁!15	-11.7535
▁사회에	-11.7536
ima	-11.7537
▁폭동	-11.7537
▁나머지는	-11.7538
▁개미	-11.7539
마력	-11.7539
▁보증	-11.7539
▁포장	-11.754
▁number	-11.754
▁자격이	-11.7542
▁캡틴	-11.7543
닥터	-11.7545
Reiro	-11.7545
JR	-11.7545
▁Kim	-11.7546
▁개인전	-11.7546
tv	-11.7548
▁케냐	-11.7548
▁제인	-11.7548
▁실력을	-11.7549
▁다테	-11.755
▁아담	-11.755
bus	-11.755
▁느껴	-11.7551
클레	-11.7552
▁뜻의	-11.7552
▁산림	-11.7553
IF	-11.7554
▁구조로	-11.7555
夫人	-11.7555
▁침묵	-11.7556
▁신주쿠	-11.7557
▁자릿수	-11.756
▁구조가	-11.756
▁흥선대원군	-11.7564
▁행정구역이다	-11.7564
▁입니다	-11.7564
▁입수	-11.7565
▁설립하였다	-11.7565
▁부분적으로	-11.7566
▁기간이	-11.7566
▁유방	-11.7567
▁April	-11.7567
etter	-11.7568
웃	-11.7568
▁중대한	-11.7569
▁125	-11.7569
▁운행한다	-11.757
▁일어나자	-11.7571
▁체인지	-11.7571
▁있었다는	-11.7572
▁베드로	-11.7573
▁bgcolor	-11.7573
가루	-11.7573
애니박스	-11.7573
보로	-11.7573
▁곡이다	-11.7574
스피	-11.7574
▁학명	-11.7574
▁전투는	-11.7575
rk	-11.7576
pl	-11.7576
▁의정	-11.7577
▁촉구	-11.7577
▁장면을	-11.7578
亭	-11.7578
awa	-11.7579
▁크라운	-11.7579
▁대화를	-11.7584
인들을	-11.7584
ρ	-11.7584
았	-11.7585
▁일컫는	-11.7586
▁지키고	-11.7586
▁최선	-11.7586
▁핵무기	-11.7587
▁기사단	-11.7587
콧	-11.7588
레이스	-11.7588
▁배수	-11.7588
스런	-11.7589
phy	-11.7589
▁다목적	-11.759
▁천마	-11.7593
▁잡혀	-11.7593
▁증후군	-11.7594
마당	-11.7595
▁닐	-11.7595
▁미노	-11.7596
▁대한민국과	-11.7597
▁수수께끼	-11.7597
▁(2016)	-11.7598
▁앤디	-11.7599
▁고든	-11.7601
▁넘어서	-11.7601
▁밟	-11.7604
▁Soul	-11.7604
다람쥐	-11.7604
▁복장	-11.7605
▁클리	-11.7605
▁바오로	-11.7607
▁시리즈에서	-11.7609
▁참모	-11.7609
▁계기	-11.761
사랑의	-11.7611
▁데모	-11.7613
Instrumental	-11.7613
-24	-11.7614
▁모델이	-11.7615
▁실무	-11.7615
▁상임	-11.7617
▁프라하	-11.7617
▁식민	-11.7618
▁일러스트	-11.7619
▁카드를	-11.762
▁""	-11.7621
▁인정하는	-11.7621
▁장례	-11.7622
▁중앙위원회	-11.7622
▁안의	-11.7623
▁가져온	-11.7623
일요일	-11.7623
▁유연	-11.7624
▁Book	-11.7625
▁자료가	-11.7628
▁우승하였다	-11.7629
惠	-11.763
▁이르고	-11.7632
Pi	-11.7632
폴리스	-11.7633
齋	-11.7633
▁하프	-11.7634
색을	-11.7635
전체	-11.7636
ram	-11.7636
qua	-11.7636
▁소실	-11.7636
區	-11.7637
역학	-11.7638
▁최근의	-11.7638
ald	-11.7639
지훈	-11.7639
cri	-11.764
왕조	-11.764
造	-11.7641
▁한양대학교	-11.7642
자본	-11.7643
▁곡이	-11.7643
▁해고	-11.7645
(1998	-11.7646
▁Ge	-11.7646
GM	-11.7649
▁도카이도	-11.7649
▁움직임을	-11.7651
받는다	-11.7651
▁신하	-11.7652
▁report	-11.7653
베트남	-11.7653
▁휴식	-11.7654
▁상표	-11.7655
▁개화	-11.7655
今	-11.7655
랫	-11.7655
겨울	-11.7659
▁플랜	-11.766
▁재선	-11.7661
▁동정	-11.7661
▁사내	-11.7662
비오	-11.7662
▁마그	-11.7663
▁김옥균	-11.7663
▁무엇인가	-11.7663
관에	-11.7663
▁클릭	-11.7664
곡명	-11.7664
▁기금	-11.7664
▁친선	-11.7665
IX	-11.7666
▁배상	-11.7666
강에서	-11.7667
▁경력을	-11.7667
▁미하일	-11.7667
베르트	-11.767
mapsto	-11.767
회말	-11.7672
▁Radio	-11.7673
연료	-11.7674
▁유소년	-11.7674
방영	-11.7675
▁겪	-11.7675
▁초상	-11.7675
こ	-11.7675
▁지선	-11.7675
▁살려	-11.7675
▁결혼했다	-11.7676
▁대승	-11.7677
▁자사	-11.7678
▁선도	-11.7678
草	-11.7678
맥스	-11.7678
▁:{|	-11.7678
▁장면이	-11.7678
▁30%	-11.7679
▁상공	-11.7679
버린다	-11.768
ú	-11.7681
식과	-11.7682
했다가	-11.7682
▁송도	-11.7682
▁인체	-11.7682
▁영화로	-11.7683
▁마카오	-11.7683
▁받아야	-11.7685
▁나오고	-11.7686
▁어리	-11.7687
▁성문	-11.7687
그러나	-11.7688
▁기증	-11.7688
▁마린	-11.7688
리카	-11.7688
바흐	-11.7689
▁여기에는	-11.769
▁쓰시마	-11.7692
▁아종	-11.7693
▁모르고	-11.7693
엇	-11.7694
년대에는	-11.7695
루가	-11.7695
한자	-11.7696
타스	-11.7696
▁동성	-11.7696
و	-11.7696
▁연합국	-11.7696
▁탁구	-11.7697
▁가맹	-11.7698
노르	-11.7698
▁종래	-11.7699
▁시위를	-11.7699
▁정정	-11.7699
▁딸을	-11.7699
▁수용소	-11.77
▁부채	-11.7701
▁나누	-11.7701
▁식별	-11.7701
▁구절	-11.7702
itch	-11.7704
▁아버지를	-11.7704
▁맡았으며	-11.7704
:#8	-11.7704
옷	-11.7705
▁고쿠	-11.7705
▁바이트	-11.7708
소방	-11.7708
▁EU	-11.7708
▁하는지	-11.771
▁해밀턴	-11.7711
▁후임	-11.7711
▁합당	-11.7711
▁국가에	-11.7712
▁녹화	-11.7713
아가	-11.7713
▁대문	-11.7714
펑	-11.7714
공업고등학교	-11.7715
▁창건	-11.7715
▁역설	-11.7715
▁단원	-11.7715
▁공격하는	-11.7715
▁마을의	-11.7716
III	-11.7717
행위를	-11.7717
先	-11.7718
▁남용	-11.7718
▁일자리	-11.7719
▁결정하는	-11.7721
▁앵	-11.7722
▁컨셉	-11.7722
수송	-11.7722
[1]	-11.7724
▁붙인	-11.7724
隆	-11.7726
儀	-11.7726
info	-11.7727
강원	-11.7727
▁결정된다	-11.7727
▁증인	-11.7727
▁사생활	-11.7728
▁인자	-11.7729
▁박탈	-11.7729
▁리카	-11.7729
夢	-11.773
▁반지름	-11.7731
▁떼	-11.7731
TE	-11.7732
법칙	-11.7732
▁대학에	-11.7734
되었다가	-11.7736
▁학파	-11.7736
伯	-11.7737
선에	-11.7738
경제학	-11.7739
▁특징이	-11.774
▁꼭짓점	-11.7741
▁훼손을	-11.7742
나이트	-11.7743
▁리만	-11.7743
▁조용	-11.7744
▁뇌물	-11.7745
▁전무	-11.7745
▁역까지	-11.7746
▁AR	-11.7747
무용	-11.7747
▁사전에	-11.7748
우리는	-11.775
▁아스카	-11.775
니크	-11.775
▁기준에	-11.775
▁건물로	-11.775
▁지역이다	-11.7752
▁형태는	-11.7752
▁세속	-11.7753
▁매수	-11.7753
▁동성애자	-11.7754
세손	-11.7755
117	-11.7755
▁ᅳ	-11.7755
ln	-11.7755
▁서면	-11.7756
▁천문	-11.7757
▁사용되지	-11.7757
▁이후로는	-11.7758
(1995	-11.7758
▁콘스탄티노폴리스	-11.7759
▁(2013)	-11.776
▁시초	-11.776
해질	-11.7761
ジ	-11.7762
▁상세	-11.7763
▁금호	-11.7763
▁참사	-11.7765
▁입국	-11.7766
▁도널드	-11.7767
쿠로	-11.7767
▁GP	-11.7768
▁무엇을	-11.7769
안이	-11.7769
주인	-11.777
▁등지에서	-11.777
펠트	-11.7771
▁사슬	-11.7771
Ad	-11.7772
이용	-11.7773
시대의	-11.7774
▁고려하여	-11.7775
▁대응하는	-11.7775
▁의과대학	-11.7776
▁William	-11.7776
▁스코	-11.7776
고요	-11.7776
▁트라이	-11.7777
AX	-11.7777
▁운하	-11.7777
▁기질	-11.7778
런스	-11.7778
니우스	-11.7779
▁문고	-11.7781
cu	-11.7781
DD	-11.7781
▁Korean	-11.7783
타인	-11.7783
퉁	-11.7786
▁헤르	-11.7786
▁(16)	-11.7787
▁다카하시	-11.7788
▁길고	-11.7789
▁(15)	-11.7791
▁멤버들	-11.7792
▁간호	-11.7792
▁이어진	-11.7792
▁기저	-11.7792
▁라이센스	-11.7793
▁시몬	-11.7794
쓰기	-11.7794
self	-11.7795
오오	-11.7796
▁획득한	-11.7797
저는	-11.7797
ち	-11.7798
▁애정	-11.78
λ	-11.78
▁SD	-11.7801
르바	-11.7801
▁경상	-11.7802
▁정신을	-11.7803
주민	-11.7803
▁드립니다	-11.7809
해방	-11.7809
▁119	-11.7811
異	-11.7812
▁프란츠	-11.7813
▁최재	-11.7813
우정출연	-11.7814
▁get	-11.7814
▁초월	-11.7814
홍보	-11.7814
▁비밀리에	-11.7814
▁값이	-11.7815
시청	-11.7815
▁Library	-11.7816
内	-11.7816
種	-11.7816
▁카타르	-11.7816
직에	-11.7817
▁관구	-11.7818
▁알렸다	-11.782
▁바뀌어	-11.782
▁담임	-11.782
▁over	-11.782
코가	-11.782
▁오라	-11.7821
▁로키	-11.7822
▁맡았고	-11.7822
▁시노	-11.7822
▁연방의	-11.7823
▁리이다	-11.7823
真	-11.7823
▁평정	-11.7823
▁그걸	-11.7825
▁불필요한	-11.7825
▁캐스터	-11.7825
▁등극	-11.7826
115	-11.7826
▁평론가	-11.7827
olo	-11.7828
▁보게	-11.7828
illa	-11.7829
크로스	-11.7829
▁수요일	-11.783
▁갈등을	-11.783
▁고려의	-11.783
셉	-11.7831
▁일부로	-11.7831
어군	-11.7831
▁자칭	-11.7832
▁우라늄	-11.7834
▁동일하다	-11.7835
▁서지	-11.7835
ild	-11.7835
▁사살	-11.7835
▁서진	-11.7836
eu	-11.7837
▁AV	-11.7837
▁주역	-11.7838
최대	-11.7839
▁해결하기	-11.7839
▁September	-11.784
▁부대는	-11.784
해줄	-11.784
▁미셸	-11.784
▁헌정	-11.7841
unt	-11.7841
▁Party	-11.7842
카쓰	-11.7842
폭력	-11.7843
ê	-11.7844
타워	-11.7844
▁걸린	-11.7844
▁진사	-11.7845
▁자유형	-11.7846
▁횡단	-11.7846
▁백신	-11.7847
▁회사는	-11.7847
▁연상	-11.7848
base	-11.7848
▁후쿠시마	-11.7849
[...]
